#version: 0.2
Ġ t
h e
Ġ a
i n
o u
Ġt he
Ġ w
r e
Ġ s
h a
o n
e r
i t
Ġ b
n d
i s
Ġ c
Ġ Ċ
Ġ m
Ġ o
Ġ d
in g
Ġ f
O T
M OT
Ġ y
l l
Ġt o
a n
o r
e s
e d
Ġy ou
ha t
e n
Ġ p
Ġ g
C H
Ġ l
CH I
a r
Ġo f
Ġa nd
a s
Ġ in
n o
a t
o m
Ġ I
Ġ he
' s
Ġ h
l e
Ġ ha
Ġ it
v e
a y
i c
e t
Ġ on
Ġt h
Ġt hat
u s
g h
i d
Ġb e
o o
l d
a l
Ġ is
u t
o w
Ġ no
Ġ e
Ġw as
Ġw e
i m
k e
a c
' t
a d
v er
Ġ re
o t
. .
Ġ n
gh t
r i
Ġf or
s e
i r
l y
i on
a m
en t
Ġd o
Ġ =
Ġs t
Ġ u
Ġ T
ou t
s t
Ġ S
Ġ k
r o
it h
Ġ M
Ġm e
e a
he r
Ġw ith
Ġ A
a ll
om e
a nd
Ġg o
Ġs e
Ġl i
â Ģ
c h
Ġ C
Ġa n
Ġa s
u r
Ġa t
t er
ou ld
Ġno t
Ġw h
Ġha ve
i ll
Ġ B
c e
no w
Ġth is
Ġ H
he re
Ġa re
us t
e ll
oo k
i f
an t
c t
i l
Ġh is
Ġk now
u n
x x
u m
Ġon e
Ġyou r
r a
ea h
Ġhe r
Ġ j
.. .
Ġu p
t h
i e
Ġthe y
Ġd on
Ġc an
Ġthe re
Ġs he
o re
Ġn e
Ġ "
o p
Ġs o
Ġha d
Ġw hat
Ġm y
Ġ P
Ġa ll
g e
r om
ou r
p p
Ġ D
Ġ Ġ
a in
a b
Ġ 1
Ġ r
Ġli ke
Ġs h
e l
Ġ W
he n
oo d
o h
ac k
i ght
Ġs a
Ġ out
Ġh im
ar t
c k
in k
u l
o l
a ke
r y
' re
Ġa b
Ġb ut
Ġd e
Ġp l
Y ou
Ġg et
A T
Ġ J
Ġ F
Ġf rom
Ġ G
I N
es s
i g
ha n
ver y
at ion
Ġ L
e m
ri ght
T he
re d
Ġa l
y ou
er s
' m
Ġd id
es t
Ġwe re
q u
on e
is t
n a
Ġo r
Ġ R
Ġs u
ou nd
Ġb y
w hat
F AT
am e
ĠT he
in d
it t
o s
Ġthe m
Ġ N
t her
n t
Ġ 2
ar d
re s
on g
Ġc om
Ġs ome
Ġth ink
Ġab out
Ġg ot
a k
Ġhe re
ow n
IN V
as t
us e
Ġw ant
i ve
Ġj ust
all y
Ġw or
Ġl ook
] .
Ġs p
Ġ E
Ġse e
Ġw ould
' ll
Ġc on
y eah
Ġsa id
a p
at e
Ġ v
e p
ic k
Ġ if
- -
xx x
ic e
Ġ O
h i
Ġe x
k ay
f e
v en
Ġan y
or t
im e
b er
ic h
o d
Ġwh o
ou gh
Ġm an
Ġthe n
Ġs ay
Ġ us
Ġw hen
a g
Ġ right
a re
in e
Ġt w
id e
. "
Ġno w
Ġ (
Ġw ill
h ing
Ġp ro
t hat
Ġ [
Ġin t
itt le
e ar
i es
ou s
I t
a u
Ġb o
Ġb ack
Ġd own
Ġa g
o st
Ġ2 0
ĠH e
a use
Ġl ittle
o se
w ay
Ġ er
Ġgo ing
Ġbe en
Ġt ime
Ġp ut
âĢ Ļ
' ve
Ġc ould
w e
Ġ1 9
Ġg ood
Ġo ver
l f
âĢ ľ
Ġc l
it y
o ve
Ġha s
Ġof f
n e
u h
e nd
Ġa r
ac e
Ġm ore
Ġ very
re e
Ġto o
Ġwh ich
m y
it e
A R
H e
ĠI t
âĢ Ŀ
s o
t he
ĠĠ ĠĠ
c ause
Ġ qu
, "
Ġo ther
Ġtw o
Ġthe ir
Ġpl ay
Ġth ing
Ġt r
u re
f t
Ġ ro
W hat
Ġp e
A nd
Ġ K
Ġf e
Ġ xxx
u d
m ent
is h
re at
al k
Ġl e
Ġa f
Ġb l
Ġc ome
ad d
Ġb r
X P
on na
Y eah
p e
E XP
as e
y es
ot her
ur n
on d
h y
om et
is s
u e
ou ght
Ġg onna
i an
Ġg r
O h
Ġ U
he d
or n
u ck
Ġint o
p s
op le
Ġag ain
a ge
Ġh ow
h o
Ġm ake
Ġw ay
b e
ir st
N o
i v
t y
i a
ou nt
Ġa m
Ġt han
b le
as s
i re
t e
ar y
ad e
Ġw here
P AR
Ġ '
Ġ en
p l
Ġt ake
Ġdo es
d o
Ġwor k
Ġpe ople
Ġs omet
Ġwe ll
ac t
at er
Ġc o
p t
o kay
W e
u ch
o v
Ġne ed
h is
Ġme an
Ġl et
se lf
Ġf irst
Ġd ay
p er
is e
Ġha nd
Ġt ell
ha r
Ġc all
a v
l es
res s
an g
u ll
c i
Ġp art
at her
a h
or d
f f
Ġaf ter
Ġsh ould
w here
m er
in t
Ġb et
ĠS t
Ġf l
au gh
re n
Ġ our
f ore
w n
T hat
W ell
nd er
Ġm uch
h m
th ing
Ġc ar
ad y
ab le
B ut
Ġth r
ac h
y s
Ġp o
i le
Ġe very
r u
Ġdid n
Ġu n
Ġon ly
Y es
t here
an na
Ġp re
t ing
an ce
A N
oo l
Ġy ear
i z
hi ld
ir l
Ġt e
c c
Ġs c
Ġse c
n g
ou se
Ġg u
ar k
Ġsomet hing
Ġre ally
Ġp r
ĠM r
Ġm ade
c l
d ay
Ġthe se
Ġha pp
ic t
o b
Ġd is
Ġw r
g et
at ed
Ġc hild
Ġl ong
Ġ V
Ġt alk
u b
or y
? "
Ġa d
Ġs m
he s
Ġa way
ion s
Ġbe fore
o c
o g
' d
i ed
Ġu nder
I S
w ard
Ġg irl
Ġbe cause
Ġ im
Ġ ke
Ġcom p
v ing
Ġre m
od y
en ce
Ġa ct
. ]
Ġw anna
o ll
Ġb ig
R O
ĠS he
Ġdo ing
Ġw ent
m an
at ch
Ġs ha
g g
Ġp er
Ġth ree
Ġhe l
Ġth ose
en s
Ġne ver
Ġas k
Ġ Y
b ut
Ġal so
S o
M A
Ġth ought
Ġo ld
f ul
ĠI n
i p
Ġt urn
i x
Ġc h
Ġa pp
Ġh ome
i ld
ri end
on s
l ing
c an
l augh
¿ ½
ï ¿½
o ld
o ck
Ġm ay
Ġ20 1
Ġc ame
Ġthing s
l ook
ab y
no ther
k s
Ġc r
w ell
0 0
le t
Ġne w
e ct
Ġb ook
oo t
an s
Ġe ven
or s
Ġcon t
le ase
ri ed
Ġb it
Ġhe ad
Ġb u
Ġm ust
Ġg reat
v ed
at h
Ġf ind
Ġdon e
o y
Ġthr ough
Ġst art
i ly
Ġl ove
a ve
n y
Ġa nother
Ġs l
ing s
Ġh ouse
ak ing
u p
a w
a it
Ġg ive
c ome
Ġt ry
Ġhel p
Ġst ill
Ġbo y
i ous
Ġl ea
Ġe at
Ġl ast
Ġre s
T E
Ġman y
ig n
a ir
Ġn ame
w w
i gh
ĠC h
Ġsh ow
B RO
G MA
H E
ak es
x t
Ġc ha
t ain
Ġw on
Ġ ra
en ed
ar s
Ġs er
Ġm ight
al s
â Ļ
Ġc han
ĠU n
v es
at es
u ally
Ġm in
or m
I n
Ġl ot
um my
l and
Ġf ound
S IS
Ġm other
S he
Ġk ind
Ġbe l
laugh s
âĻ ª
Ġc he
Ġn ight
Ġd if
ul t
Ġ âĢľ
an c
Ġcom m
p ort
ch ool
The y
Ġm ov
s ide
Ġc ount
one y
Ġre c
Ġha r
. âĢĿ
Ġo p
Ġm ost
a il
Ġo wn
b ody
Ġcall ed
Ġb aby
Ġfe el
os s
ĠĠĠĠ ĠĠĠĠ
Ġf riend
re nt
y e
em ber
u nd
Ġus ed
e ver
Ġb ot
T his
Ġbet ter
Ġe l
Ġm om
Ġc are
Ġar ound
Ġer m
Ġu h
Ġsu ch
Ġe nd
h uh
Ġyear s
Ġat t
Ġwh y
Ġli fe
im es
Ġlook s
Ġd es
u c
Ġo kay
Ġbe ing
or ry
Ġpl ace
add y
Ġit s
l i
T here
Ġt ra
ĠThe y
Ġse em
Ġke ep
M CH
re st
Ġf our
Ġ .
ic al
e e
in n
Ġs it
way s
Ġ You
r ow
it ed
e w
h ow
Ġany thing
ct ion
Ġsu re
Ġg l
ĠF r
in ce
ou n
p le
Ġw ater
Ġs ame
an k
Ġis n
han k
Ġwh ile
Ġst r
Ġsu pp
Ġy eah
ver s
Ġn ice
ic an
l ed
Ġro om
ut e
ation s
H ow
s he
Ġc our
id ent
t a
Ġp ol
Ġb all
Ġdoes n
Ġf in
Ġm on
Ġto ld
s s
th is
Ġs chool
Ġr un
b ab
m m
Ġy es
p h
Ġf ar
Ġel se
out h
N AN
it ion
Ġ 3
d s
Ġne xt
at ter
I f
Ġb re
ĠB r
Ġs et
on t
un g
Ġc le
in s
Ġe ar
Ġd ist
Ġle ft
Ġal ways
m hm
Ġpo int
! "
Ġwe e
m ber
Ġp res
Ġbe g
u g
Ġdif fe
Ġst op
n ess
Ġs w
re am
Ġhar d
re t
Ġre ad
Ġ20 0
ĠA mer
au ght
Ġf ather
ĠM ar
D o
Ġa cc
oh n
âĢ ĵ
the y
Ġb us
Ġf ace
Ġm en
Ġu nt
m s
no t
Ġf un
Ġd r
Ġpre t
, âĢĿ
Ġtoo k
-- --
Ġsa w
Ġa c
W hy
ve l
Ġqu ite
Ġm oney
m p
Ġd ra
Ġc ol
Ġg one
le ep
Ġ20 2
Ġf am
Ġ CHI
Ġo b
" .
g r
Ġw alk
ow s
Ġw ait
E S
m e
Ġ use
is hed
w ho
Ġh old
Ġk ne
an e
pe ct
d e
Ġen ough
ĠA l
Ġs ur
Ġhe ar
Ġp lease
Ġb ed
ers on
Ġth ough
Ġgo es
Ġbo x
b r
e c
Ġunt il
Ġsay s
g o
t o
Ġe ver
Ġre al
u ff
Ġst and
um p
Ġn um
Ġre g
Ġcom ing
get her
ĠA nd
us h
am p
Ġdo or
N ow
Ġcour se
Ġre t
O U
Ġw ar
Ġf ive
j ect
v ent
orn ing
a z
Ġs ide
c es
is ter
Ġknow n
D on
Ġe le
Ġw om
Ġst ay
d on
Ġp ass
Ġ1 8
Ġop en
c le
Ġe yes
ea k
TE A
as on
Ġfe w
ow er
ĠB ut
ation al
L L
Ġb est
Ġask ed
n ing
Ġto day
i ble
O kay
ri es
w hy
Ġyou ng
Ġt er
re w
i red
Ġli ght
Ġbel ie
Ġf r
Ġy et
Ġa ir
Ġse en
Ġu m
d er
g er
am es
ft a
Ġ _
ter n
Ġchild ren
Ġup on
op e
or th
b all
ro ss
Ġf ell
ap er
s h
Ġsec ond
as ed
Ġs ing
Ġdiffe rent
ur t
Ġm orning
Ġc har
Ġne ar
i al
fe ct
Ġp ick
ur ing
p ut
Ġ ent
we en
Ġha fta
as h
Ġhand s
) .
R A
e b
Ġf all
IN G
Ġnot hing
Ġto gether
ĠT HE
Ġs orry
Ġlook ing
Ġk ill
Ġde ar
u res
Ġm ar
Ġm ind
in es
Ġs ix
b o
Ġr ound
ĠT his
Ġget ting
ĠM iss
Ġl ist
an y
or k
Ġre l
d id
at ing
C ome
oll ow
Ġre st
Ġhim self
Ġ ri
E R
it s
l ess
Ġlea ve
Ġrem ember
E r
ĠMr s
m b
Ġs ound
ĠN ew
Ġbet ween
Ġsm all
m ost
Ġm il
o or
en er
t en
Ġon ce
Ġs il
F CH
Ġre d
ĠJ ohn
st and
I s
un t
ct or
Ġb ro
un e
Ġbot h
an ge
Ġw atch
om b
Ġe ach
ĠA r
Ġhe art
Ġhe ard
ĠW hat
Ġb ad
L et
Ġb ir
Ġp ie
a le
Ġt able
i b
ul ar
t on
Ġha ving
Ġwith out
Ġs leep
re en
Ġan im
Ġha lf
S t
ĠAmer ican
Ġd ri
Ġl ater
Ġc ap
Ġo h
Ġwor ld
Ġf oot
ĠI nd
ent s
A D
Ġcon s
et s
ter s
m a
Ġsha ll
w h
Ġde c
Ġno ise
Ġkne w
Ġso on
f orm
om my
re ady
r ist
Ġp erson
Ġw ind
Ġto p
O N
g ed
am a
a pp
Ġagain st
oc al
is es
Ġd ied
Ġs ort
Ġm aking
A ll
Ġm atter
Ġlook ed
Ġh igh
Ġd ire
Ġin st
Ġhapp ened
a red
Ġwant ed
ï¿½ ï¿½
Ġ 4
Ġint e
ĠA s
Ġcha ir
ww w
Ġtalk ing
in ed
o k
Ġp h
Ġ MOT
ce pt
t le
M y
Ġ19 9
a ut
" ,
U h
p r
Ġm us
c hed
is ion
if e
Ġp op
Ġpret ty
d en
i et
Ġde p
Ġs k
er tain
Ġha ven
Ġevery thing
Ġf ollow
ĠD e
N ot
o e
us s
ĠT here
Ġli ve
Ġme et
M m
Ġ 5
Ġan s
Ġbe c
He y
i er
ke y
ĠE d
ĠUn ited
Ġm iss
Ġbl ack
) ,
Ġt ri
ĠA n
os ed
Ġh our
Ġin d
O R
it her
Ġ i
ward s
Ġnum ber
Ġv o
Ġinte rest
ĠG r
Ġm ove
ci al
Ġg ave
Ġl ar
er n
m ed
ĠG er
ub l
Ġmom ent
Ġday s
c hes
Ġto wn
Ġas s
Ġfam ily
Ġdo g
hi p
Ġf ire
b y
cl ud
B e
Ġg ame
e x
Ġsu b
bab ly
u al
in ess
Ġre ady
ĠE ng
Ġbre ak
Ġw ond
Ġqu est
i ke
t s
is ed
Ġc ity
Ġbelie ve
g ood
Ġin v
Ġ id
c ha
Ġb orn
ĠT h
Ġf ood
se l
c ed
Ġact ually
a x
w o
pp ed
Ġd ar
o on
Ġm et
se e
Ġad d
Ġbr ing
Ġtry ing
Ġst ory
Ġal ong
Ġwho le
Ġc ut
ĠG od
Ġf act
ull y
i o
Ġ ,
Ġe ight
Ġbo ys
Ġs ince
Ġp aper
ĠN o
Ġh or
Ġk id
Ġe as
G RA
ie ld
on y
Ġp ict
ent y
ut h
Ġin ter
ĠW e
W hen
at ive
Ġd el
Ġ hat
ic s
Ġwas n
R ight
en n
or row
Ġte am
ar r
at s
Ġunder stand
p ed
ver n
ant s
a j
J ust
el t
T hen
Ġcom es
Ġal most
er y
Ġstart ed
Ġj ob
t ed
Ġim p
Ġsay ing
Ġdra w
Ġal ready
Ġret urn
Ġdis c
Ġsp eak
ĠSt ates
ak en
s ha
as ter
Ġst uff
O n
f ter
1 9
e red
Ġcl ose
Ġst ick
it ies
Ġdar ling
ou ch
Ġre f
in a
Ġp oss
Ġh ot
r ict
iv es
Ġw he
Ġwould n
Ġ19 8
Ġdr ink
Ġs qu
Ġl augh
Ġs ign
Ġs we
Ġl and
ĠB e
o ke
ct ed
Ġwond er
Ġs ent
Ġt imes
Ġ 6
k es
Ã ©
Ġwor d
Ġgu ess
Ġbr other
Ġwom an
âĢ ĺ
ou p
Ġdo ll
Ġplay ed
ĠC l
Ġplay ing
u es
Ġd ro
A re
n er
Ġha ir
Ġbu ild
Ġs on
he y
Ġpro ble
Ġc ent
y ing
j ust
Ġwr ong
Ġmin ute
ie w
Ġth ir
W ho
Ġfe et
li ke
Ġvo ice
Ġfriend s
Ġ ï¿½
? âĢĿ
ĠC ha
W here
Ġp ay
Ġre p
Ġpro bably
Ġp ull
Ġin clud
Ġh ope
ĠCh rist
Ġs y
Ġg i
en se
T hank
Ġd uring
Ġex t
d u
ĠI s
Ġmon th
E N
Ġcount ry
Ġfl oor
ĠJ ap
Ġ 8
itt ing
K F
Ġex c
Ġst e
Ġst ra
g s
ay be
Ġwh ite
it al
Ġmean s
Ġ Z
Ġf ull
ent ly
M ummy
Ġpl an
ha ps
Ġcon f
und red
Ġex p
Ġid ea
ch ild
ac es
Ġs im
air s
st er
Ġbr ought
Ġthan k
Ġmov ie
Ġbec ame
Ġl ost
Ġde ath
Ġt en
U R
s ing
on es
Ġst ud
Ġst ate
Ġyour self
Ġseem ed
o int
Ġtra in
iz e
Ġon es
ĠC ount
Ġr ather
Ġp ur
ro om
L ook
t hank
le y
Ġfor m
Ġ 7
ĠF l
T h
ag es
D id
Ġco ll
d y
Ġc ur
Ġh undred
inn er
et h
M r
en c
Ġc ertain
Ġbe aut
c ess
Ġ âĢĵ
a ld
Ġp le
Ġs ir
Ġgirl s
Ġsh ort
Ġcont in
n ight
Ġturn ed
r ic
Ġbeg an
ot e
b les
Ġa ge
h ind
Ġc ra
Ġgot ta
w er
Ġc at
Ġwee k
Ġex pl
Ġa w
es e
as k
et er
Ġmus ic
a id
en e
Ġ19 7
ĠM ummy
Ġg ener
Ġwor ds
G ood
Ġin c
Ġbl ue
Ġ âĻª
Ġp ain
g ot
o ber
ĠC ar
Ġle ad
ell ow
Ġmay be
ie f
Ġm ag
id ed
ment s
Ġsp e
Ġfr ont
ĠM ay
Ġgr and
Ġf ine
ap e
Ġmy self
ent ion
] ?
Ġt aken
om m
Ġg ra
D AD
Ġqu ick
Ġm outh
Ġpo or
Ġp rom
Ġm akes
is on
Ġf av
u red
ut es
Ġab le
p ri
Ġare a
ress ed
Ġs at
Ġhapp y
as er
Ġpart y
i vers
if ic
Ġh urt
Ġwant s
omb a
Ġf ight
C an
f ord
ĠB en
Ġde ad
ry ing
ou d
Ġs ong
us ed
re ad
ur y
Ġpro v
m in
ll o
iz ed
Ġout side
ĠCount y
sel ves
he ad
Ġhapp en
R E
ru ary
eb ruary
if ul
Ġim port
m ore
r al
oll y
Ġbe hind
Ġl ess
Ġl ady
Ġcol or
f ully
s on
Ġf elt
Ġte le
o es
Ġm ain
Ġgi ven
Ġt aking
Ġbus iness
ou ble
Ġoff ic
i k
Ġc ase
Ġ es
Ġc ir
l ish
Ġh uh
Ġ 9
Ġof ten
id er
ĠH ow
ĠS p
Ġ ed
Ġm ine
Ġl ine
ĠA d
Ġmin utes
2 0
o le
ĠH is
Ġf ro
ĠA t
Ġrec ord
i pp
Ġl ear
Ġser v
Ġde al
ĠJap an
Ġt re
ang er
E L
Ġs ister
ĠH ar
ĠD addy
Ġgu ys
ess ie
Ġanim als
ĠS o
Ġfun ny
Ġquest ion
Ġg reen
Ġare n
ĠF ebruary
ad a
Ġl ate
A s
un k
Ġchan ge
Ġo cc
Ġ19 6
ĠO h
Ġbe ar
er t
ĠR e
Ġwr ite
ĠĠĠĠĠĠĠĠ ĠĠĠĠĠĠĠĠ
f or
ren ce
re et
av id
Ġto ys
and er
Ġpres ent
b ye
g in
Ġt ill
Ġe v
Ġm ess
Ġpict ure
Ġe m
Ġle ast
sha ll
Ġe ither
f l
i ver
le an
ar a
f fe
ĠB art
z e
Ġcle ar
A l
b b
g an
art ment
h il
be cause
L D
g ie
an u
Ġm ed
F or
ĠT hen
id es
am ed
Ġv is
b s
Ġ Q
Ġb ase
f ort
Ġcould n
Ġpie ce
ill y
ĠY ork
Ġco ld
U N
Ã ¡
ll y
ard s
I T
b l
aught er
u ly
al ity
Ġcl ot
are nt
Ġb ar
o ver
Ġin s
en g
oo ps
un ch
Ġlar ge
Ġp ubl
ian s
Ġf ig
n ed
Ġsome one
Ġpol it
Ġro ad
Ġp ri
Ġag o
id ge
Ġro ck
Ġh um
Ġstr ong
Ġgu y
Ġal one
Ġc ou
z z
Ġw ife
Ġbo at
ha ve
r ing
Ġgo vern
A S
Ġw ish
al right
e en
Ġre pl
---- ----
Ġswe et
Ġher self
Ġother s
Ġw at
Ġto m
ĠC har
Ġm id
Ġen g
Ġsomet imes
Ġtw enty
G o
Ġb ody
a ul
ĠT om
Ġbir th
ic a
it ing
oun c
b orn
Ġtr ue
at ur
I I
Ġhor se
Ġimport ant
Ġgr ound
Ġre ason
L E
ĠY OU
Ġd ark
ĠW ill
Ġin side
Ġlist en
Ġp ower
ol og
Ġf ore
m ing
em ent
d le
et y
Ġde f
a im
TE R
e ad
e or
Ġd uck
ĠO n
Ġbeaut iful
at t
Ġlet ter
ri e
Ġbook s
Ġf if
le x
ĠF or
A t
ic ip
Ġget s
Ġdist rict
Ġse ven
Ġo pp
Ġf ing
Ġm ill
ep t
ĠT O
Ġc ook
Ġwork ing
Ġtr ans
Ġm ark
at or
oo f
anu ary
Ġt y
ous and
el s
lean or
Ġd inner
Ġad v
Ġ1 0
ate ly
oo h
Ġwe ar
ac ed
00 0
ious ly
Ġg un
ist s
Er m
R I
Ġl ay
ĠT hat
ĠP r
do es
ic ha
g y
Ġt ree
ion al
Ġl ov
m en
Ġor der
e y
ne y
Ġfin ished
ou b
id ing
iv ing
f ic
Ġf uck
Ġp ast
Ġre ce
Ġex am
Ġam ong
Ġl ad
Ġ1 7
Ġt ried
ĠM ag
A M
Ġs um
Ġbl ock
it ch
Ġar t
ĠB l
Ġ19 5
Ġche ck
ĠB essie
c ri
an a
a ur
ĠA ll
Ġf air
k en
Ġp os
Ġh on
ra p
Ġcle an
Ġear ly
Ġac ross
Ġy ellow
ang u
icha el
ow ing
Ġs n
Ġri ver
Ġd addy
Ġre ac
He re
Ġli ved
pri l
ĠI f
Ġj o
te en
er ing
Ġproble m
Ġf ish
Y our
ain ed
Ġpr ot
ĠEng lish
Ġs un
G et
Ġchan ce
ĠW hen
g as
Ġgl ad
c ent
ĠB omba
at ure
Ġr an
ĠJ anuary
Ġex pect
ay s
UR S
ha m
ĠT H
Ġfoot ball
Ġatt ack
Ġs itting
ĠC an
A P
Ġf ree
um b
ĠP ro
Ġnew s
is m
ac her
Ġd at
Ġcl ass
ic es
ot s
ove mber
Ġth ousand
c ol
Ġbu y
Ġt ouch
Ġse ver
i am
Ġb ath
ĠL e
ĠC on
Ġw in
ow ed
g es
ra id
C O
al th
Ġseem s
ĠB ar
Ġsil ver
qu e
d uc
e k
Ġhe ld
Ġfav or
ĠH er
vel op
Ġknow s
Ġp ar
t hen
Ġl aw
ĠS c
ea red
Ġb ag
Ġob ject
Ġkill ed
Ġph one
A n
U S
Ġthink ing
Ġapp ro
Ġsever al
Ġf ast
ut ion
ul ation
ain s
Ġt akes
r act
Ġ ĠĊ
Ġc up
Ġc reat
Ġser ies
Ġh it
Ġres p
er v
ĠS te
Ġv ill
it c
Ġt ea
Ġro ll
Ġc a
Ġ Yes
ic ally
v ision
Ġn orth
ĠGer man
w hen
z y
ar ch
ĠP e
sing ing
or ld
Ġm od
ĠBr it
it er
i um
ell o
l s
Ġgr oup
Ġp at
Ġl angu
Ġ1 5
Ġar m
Ġ19 4
ĠK ing
Ġcomp any
Ġsur pr
u ed
Ġb ra
ĠN ovember
il t
t wo
Ġse nd
iv ed
Ġ202 1
u ro
Ġp u
Ġcon st
Ġbl ood
am er
O ne
Ġ -
itt en
ivers ity
Ġw all
Ġtom orrow
ren ch
Ġmil k
Ġk iss
ĠP hil
Ġa p
Ġw ood
ĠO F
Ġqu iet
Ġ202 0
Ġli ving
os p
Ġcount y
Ġke pt
g ue
in ing
Be cause
ĠG u
y a
Ġaf raid
st em
Ġy a
th ough
il ity
Ġsome body
Ġyour s
Ġd ress
Ġto y
no ck
Ġpoint s
Ġd aughter
c he
he llo
A h
Ġn ine
ĠFr ance
Ġbirth day
Ġl o
i ent
Ġb ab
Ġre le
Ġans wer
Ġal right
Ġhis t
Ġre port
Ġhe av
ove red
Ġc e
Ġso ld
Ġm ot
f ess
E D
m akes
Ġus ually
Ġper haps
m on
ound s
âĢ Ķ
ĠG eor
Ġchar ac
Ġv ocal
Ġse at
Ġtr ouble
b and
c o
Ġwith in
ct ober
Ġme mber
ĠW orld
s ay
Ġst ep
Ġrun ning
Ġp ot
Ġso ft
oun ter
ain t
d den
Ġd a
uh huh
Ġno se
Ġc ho
Ġmonth s
l er
Ġbe come
gr am
d ing
Ġ Yeah
Ġc amp
Ġlove ly
S h
T o
ĠW ar
Ġhour s
aj or
Ġwork ed
Ġf ield
Ġst ood
we red
b ed
Ġa in
ĠI N
ĠD on
p ing
Ġcan not
har d
Ġh ur
inn ing
Ġf ix
Ġstra ight
ĠD avid
ir t
Ġn amed
a i
p ar
Ġsu dden
Ġc orn
gg y
Ġ ve
ur ch
ĠJ ane
Ġ z
Ġsh op
. '
Ġb reat
Ġmar ried
Ġwhe ther
! âĢĿ
Ġst ar
Ġwom en
Ġl a
ĠJ uly
r ation
Ġs ea
Ġfor ward
Ġc ried
Ġn in
act ly
ĠC ol
han ks
Ġthem selves
ent le
S te
Ġc or
Ġpart ic
Ġcr ay
ept ember
Ġans wered
Ġd ream
ĠD o
cc ess
er c
k ed
ĠA N
ĠA pril
Ġli ves
ĠFr aser
Ġ1 6
Ġt ired
Ġc ross
Ġsupp ose
r ay
ug ust
Ġspe cial
Ġp age
Ġ X
ĠB ob
ĠS w
g ing
Ġde velop
ud e
ĠMag gie
Ġh ung
Ġclot hes
he l
or ies
Ġpass ed
Ġdep artment
em pt
Ġj ump
ĠO ctober
F r
Ġb and
ic ian
Ġl ow
m other
Ġf it
Ġ1 2
ĠO r
Ġeat ing
s c
P lease
Ġsp ec
Ġt on
Ġposs ible
ounc il
Ġcou ple
Ġf il
Ġsy stem
ĠJ ack
ĠM c
f er
Ġpro per
Ġ ill
Ġeas y
Ġr ing
wh ich
c om
l o
Ġa h
r at
Ġp ost
st airs
Ġfeel ing
Ġple as
Ġcon c
ond on
u k
Ġtele vision
Ġdo ctor
Ġcomm un
ĠN orth
Ġ19 3
Ġst ation
ick s
ear s
Ġd anger
Ġf ly
n et
Ġs and
Ġn ational
Ġex per
ot h
j oy
bo x
Ġs har
Ġcl im
E x
e an
t om
Ġ ice
Ġd oub
Ġcont ro
O M
ho ld
Ġdif fic
Ġpol ic
ri gin
ĠS eptember
gas ps
ĠA ust
T HE
Ġd ad
Ġd est
ĠM an
ĠP ar
Ġar ri
Ġmill ion
f fect
g ar
s ome
I D
T H
Ġli kes
ĠC al
Ġd ie
Ġle g
itt y
ĠP l
Ġv iew
ĠT r
og n
Ġsound s
Ġc atch
end ed
pl ay
ow ers
un icip
Ġkid s
ag er
Ã Ń
Ġneed s
f riend
ĠC ap
Ġwind ow
Ġab s
Ġsl ow
r is
Ġd iv
Ġrele ased
ore d
anc es
Ġgovern ment
Ġput ting
S S
Ġcir c
' .
ĠA ugust
Ġt ick
bab bles
G H
Ġst at
ĠS outh
Ġar ms
Ġwait ing
Ġlot s
Ġsupp ort
H ave
Ġo per
Ġbro ken
oo p
Ġe gg
Ġfor get
Ġmov ed
Ġs al
Ġno ises
Ġter ri
Ġf ur
ard on
Ġv ar
Ġh us
Ġab ove
res ent
Ġoff ice
, --
Ġk nock
em y
Ġthr ow
o x
u ri
y our
Ġe vent
Ġm ur
ĠC ity
ĠL ondon
l a
Ġk ing
Ġg entle
no on
Ġha ng
Ġhow ever
Ġmil es
Ġe qu
ce mber
Ġput s
ci ent
Ġ est
Ġsu ccess
Ġse ason
ore n
ĠInd ian
E very
Ġre qu
Ġor gan
Ġchan ged
Ġevery body
Ġmom my
s ings
hi le
ur s
Ġtell ing
Ġan n
ag ed
Ġrec ogn
v a
ĠĠĠĠ ĠĠ
Ġton ight
Ġ *
Ġpol ice
Ġwh om
Ġto wards
Ġ ?
Ġf a
M aybe
e al
le te
Ġe ye
ro p
Ġ ...
Ġp ig
Ġme ant
Ġfor got
Ġj u
m as
Ġstand ing
Ġpartic ular
f ast
Ġsh ot
oo se
Ġe ffect
c on
t ime
Ġst ru
C h
Ġgo ld
ce ed
Ġwhat ever
mb ers
W ith
Ġh ors
b it
Ġm ist
om as
ter day
S ome
Ġn or
ph one
Ġreturn ed
Ġex cl
Ġper fect
Ġen joy
itc hen
Ġc aught
r or
ĠJ oe
V E
ĠG o
w ow
Ġl uck
Ġwr itten
Ġwor ry
ffe e
] !
re ed
Ġm unicip
O f
am b
ĠE uro
Ġc ow
Ġin form
ir on
ĠMar ch
ĠS h
ĠF rench
Ġpop ulation
Ġfor mer
Ġc os
Ġvocal ises
ĠO ne
Ġc op
Ġc ry
i or
c ounter
ĠJ une
ĠUn iversity
Ġo rigin
Ġafter noon
Ġpro gram
ru pt
Ġes c
w as
Ġb ur
Ġbo ard
Ġpr act
gg est
Ġdire ct
Ġt est
Ġs ight
Ġin de
Ġs ick
Ġc al
Ġd et
Ġp en
CHI LD
Ġdis app
Ġ201 8
gr ound
enc y
Ġlangu age
ĠC omm
Ġf ill
am ent
Ġk itchen
Ġcl os
CO L
Ġhus band
ĠM e
ĠDe cember
ĠEd na
r on
Ġcare ful
Ġfell ow
i ence
Ġany way
ci ally
Ġm is
Ġf ear
Ġfro g
Ġc ool
Ġtr uck
Ġto ward
Ġj ack
Ġ1 1
Ġsu ggest
Ġchild es
CHILD ES
d d
Ġturn s
aim ed
A L
Ġa head
ul a
ĠW est
Ġlong er
Ġsec ret
l ie
p es
w ould
Ġc ost
Ġh op
Ġbuild ing
is ing
Ġ ought
om p
ĠA fter
ard en
Ġde ep
Ġnear ly
g ive
Ġpos ition
Ġis land
Ġsh ip
O W
k ing
ĠBrit ish
D addy
Ġco ver
ĠA unt
i ps
Ġcharac ter
ĠT e
Ġeven ing
Ġfollow ing
ĠR ep
Ġbro ke
v iew
Ġsh oes
Ġfar m
ĠGr and
Ġrepl ied
Ġfor t
ĠA b
Ġme mbers
Ġdri ve
Ġsh ut
H ello
y l
ri ll
Ġr ide
Ġsa fe
Ġvis it
ree k
Ġreg ion
Ġm ad
Ġa v
if f
Ġfig ure
d in
Ġs now
Ġpubl ic
A ny
Ġex actly
Ġquick ly
ĠA lex
ĠP at
Ġde m
Ġvill age
b ur
Ġcomm on
w his
b aby
Ġhapp ens
Ġto t
ĠM ommy
Ġsp end
igh b
Ġthir ty
Ġw ild
Ġwor th
W h
Ġp arent
ĠM in
Ġwr ote
Ġsa ve
EL S
u ation
ot t
ĠN ational
Ġ201 9
ĠS ir
ĠN ow
uth or
s it
Ġany one
Ġr u
ff ic
Ġp ress
Ġinst ead
Ġprot ect
ĠM y
Ġdec ided
Ġcur rent
id ence
um s
Ġmid dle
osp ital
g est
Ġc ast
Ġinterest ed
e ge
in o
es tern
Ġt em
Ġb an
ac y
in y
il ing
Ġpro p
Ġt ape
Ġm ount
res ident
ose ph
w ith
Ġex cept
ĠEng land
i od
p lease
Ġs us
Ġpie ces
Ġmeet ing
Ġpl aces
Ġbu ilt
O r
r it
S ee
Ġto w
Ġserv ice
CH AP
ĠP aul
ber t
ĠAd am
Ġsupp osed
no te
Ġhe ll
Ġyes terday
Ġdoub t
Ġg iving
Ġlear n
E leanor
c use
Ġt reat
Ġpro du
Ġsu per
Ġus ing
Ġcomm une
Ġsil ence
ĠG ood
Ġcar ry
oren ce
Ġc amer
Ġst ri
Ġtr ust
te red
Ġcomp lete
Ġfollow ed
CHAP TER
Ġb es
ir ty
ĠW hy
Ġg ames
at tle
us hed
ol ute
ĠFr ank
Ġis s
Ġ1 4
w ill
Ġb urn
Ġd am
Ġheav y
F oot
m aybe
Ġreac hed
t i
Ġb ow
itt ed
Ġop ened
Ġb as
is hing
Ġfavor ite
Ġ !
Ġf ail
Ġli e
Ġan g
ĠP ol
Ġr ad
ea lly
Ġper form
w ork
I C
Ġco ffee
r s
Ġst uck
il ed
ĠR ic
Ġapp ear
Ġcl ub
Ġcertain ly
ĠEuro pe
is c
Ġd i
Ġv al
ick en
A fter
Ġgr ow
av es
ou l
Ġwho se
ĠR os
Ġle gs
Ġstop ped
Ġbel ong
Ġ202 2
ĠA m
ĠBr ad
Ġpret end
s p
Ġl ed
ĠM ichael
ist en
Ġinde ed
Ġst ore
ĠD an
Ġte acher
Ġthir d
er ry
Ġpro duc
Ġqu ar
Ġpro fess
AN D
Ġfin ish
M ommy
Ġgener al
ĠW ell
Ġres ult
Ġcom fort
Ġcons ider
re m
od e
ir d
Ġst reet
if ied
Ġsing le
Ġp ack
Ġm atch
Ġm ajor
Ġ1 3
Ġle vel
Ġpres ident
Ġbreak fast
Ġc ause
Ġl ocal
Ġlea ving
Ġwh is
Ġb ought
Ġsh out
Ġsome where
Ġsw im
Ġacc ount
Ġrece ived
Ġl unch
ĠCap tain
ed er
O K
il es
Ġwat ches
Ġne ck
Ġhold s
on el
ill e
mp ions
Ġwork s
Ġwee ks
Ġlet ters
Ġrem ark
Ġbut ter
tern ational
Ġanim al
Ġad m
Ġstr ange
Foot note
Ġcray on
Ġdiffic ult
o ff
Ġs ense
it z
ri but
Ġde cl
ig g
Ġexam ple
un ny
Ġso l
p han
Ġm aster
Ġm ention
Ġp ark
Ġh ol
Ġcare er
w ait
ĠE l
Ġwar m
Ġ ut
Ġra in
Ġju ice
Ġ âĢĺ
if t
ĠL ea
Ġper iod
ĠW h
Ġac cept
le ct
art y
Ġde fe
id ay
1 0
Ġmon key
a ff
Ġcamer a
N A
Ġmunicip ality
Ġre ach
ĠS ha
Ġcomp an
Ġexp ress
Ġhum an
J W
ill s
Ġbot tom
ĠS e
Ġmov ing
Ġpolit ician
Ġc re
Ġc rying
anc y
Ġdes cri
Ġb ull
Ġl im
ĠT o
Ġapp eared
n el
Ġ âĢĻ
Ġb right
Ġsudden ly
if orn
Ġp ush
Ġe mp
Ġal though
pe cially
iz ation
ĠFl orence
ĠJ im
Ġhist ory
ĠAN D
Ġh ospital
ĠD r
Ġinclud ing
ac ing
y n
ck et
Ġal b
Ġsp oke
Ġs ad
Ġcra zy
Ġlea ves
S orry
Ġde v
Ġcar ried
UN K
Ġk ick
Ġfing er
Ġele ct
Ġa uthor
ha s
Ġv ide
Ġl ab
id a
el en
ord ing
Ġpr ison
Ġty pe
Ġm am
Ġbl ow
ĠGeor ge
Ġl oc
Ġh ig
.. ..
ĠC hi
Ġdes ign
Ġeng ine
Ġli ft
Ġtr uth
Ġevery one
Ġfif ty
iforn ia
t ake
ro y
il ar
Ġall owed
ĠN ot
og rap
Ġcomp et
Ġfur ther
Ġc and
J ohn
Ġ ]
Ġwatch ing
_ ,
ort s
ens us
E T
ĠM ama
ĠP resident
Ġsum mer
pp y
ĠG reat
Ġgl ass
g u
Ġv ol
Ġany more
Ġb ased
Ġinc re
il s
T hanks
Ġp ap
m o
ĠI T
Ġr ub
v ol
Ġb ank
Ġc ab
Ġhas n
Ġc ake
al es
Ġbre ad
Ġhung ry
Ġh oney
ĠC ent
Ġim ag
Ġne cess
Ġ3 0
ask et
or a
Ġn orm
ĠS ome
ous ly
rie f
ĠCal ifornia
Ġsl ight
Ġbus y
G r
e h
Ġany body
Ġlaugh s
, '
A Y
Ġv i
b ers
Ġk n
Ġsp ot
Ġsp ir
Ġw and
Ġne ighb
n es
Ġs illy
Ġg en
Ġcon d
Ġhe alth
Ġbr own
iss ion
Ġexcl aimed
ĠA f
Ġadd ed
Ġs outh
our n
ĠIt al
Ġatt ention
ï¿½ï¿½ ï¿½ï¿½
Ġbreat h
t ell
Ġb ud
ed dy
Ġg all
Ġacc ident
Ġinv ol
Ġit self
ĠR uss
Ġhors es
Ġn ames
Ġd ry
Ġg as
Ġg arden
Ġcap ital
au g
ĠTh omas
v in
Ġ $
om an
Ġse lf
ĠAmer ica
ĠChrist mas
1 8
Ġtre es
l ight
H i
Ġ ver
Ġt ast
Ġk night
Ġse ll
Ġdist ance
Ġcorn er
W ait
re l
Ġd ance
ut s
as hing
ic ed
Ġcom pl
Ġv ict
Ġ19 2
Ġparent s
" )
Ġplay er
w ant
v al
Ġbeg inning
Ġdel ight
h ouse
Ġp ause
Ġl ock
Ġli ked
ast ic
T ell
Ġwr iting
-------- --------
ĠWill iam
ĠAust ral
M ar
Ġwas h
Ġcap t
Ġsub ject
Ġcoll ect
Ġcontin ued
H is
w anna
Ġshould n
Ġed uc
Ġw et
it ive
Ġshow ed
Ġatt empt
st on
I R
Ġt ail
Ġha ll
ĠS m
Ġhold ing
Ġpu zz
Ste ven
W ill
ĠS ec
ĠM al
Ġbir d
Ġdro pped
el ve
Ġsm ell
Ġres pect
bo ard
Ġquest ions
Ġf ut
Ġsp ace
w ood
Ġn atur
l t
p or
r ound
Ġse x
Ġsit uation
Ġbab ies
p ly
as es
ĠR oy
R eally
T ake
ha ha
um e
Ġtr ack
Ġrep resent
Ġlov ed
Ġfuck ing
ad es
fe rence
Ġ( "
Ġbe at
gg ed
Ġch ief
k i
v iously
Ġm at
c ries
m ommy
Ã ³
Ġ2 5
Ġear th
Ġwalk ing
d own
k y
y ep
ĠB y
ĠH all
ĠE x
Ġch urch
Ġh ole
um ent
ĠR iver
Ġcontro l
U T
ĠM a
ĠH ouse
C K
Ġto r
Ġh ous
U n
Ġf res
ĠI re
Ġfe ed
Ġpr in
eng th
i res
se y
Ġblock s
ĠA g
ĠS u
anc ing
Ġcomm and
Ġn one
ig er
cl ock
Ġwere n
Ġslow ly
L ike
r an
Ġl ose
Ġha st
uh oh
th ree
ĠP er
ĠUn cle
i en
Ġp ort
om es
Ġar r
. --
Ġr ul
Ġro le
Ġproble ms
il i
g on
Ġsee ing
Ġchar ge
o f
ce ll
Ġr id
ap s
St op
ak er
Ġcr ow
C l
h ood
Ġdoll ars
olute ly
1 7
Ġe ff
ĠJ ames
Ġfing ers
Ġc ream
Ġhe y
ist ed
M om
p ardon
es us
Ġg ar
ĠP eter
ĠL o
Ġte eth
oun ced
Ġinterest ing
Ġfut ure
in ation
Ġact iv
Ġp aid
Ġan x
Ġfor ce
ĠL uc
Ġent ire
Ġsim ilar
y ond
Ġm ach
he t
Ġb ene
ĠJ oseph
ĠThe se
ci ous
Ġreg ard
Ġdro p
in ite
Ġme m
... ?
Ġstart s
Ġpri v
ly mp
Ġj ud
Ġinform ation
E LL
l in
w est
Ġlaugh ing
re r
Ġsh oot
Ġcom b
Ġvide o
k now
Ġl oud
ri age
at ives
hi ps
Ġbot tle
Ġw ide
Ġmov ies
i ant
s y
Ġp al
ĠN or
Ġneed ed
Ġsha re
Ġhat e
Ġg ives
Ġh ost
ill a
ct ure
ĠL et
p ret
Ġwalk ed
c han
au d
Ġold er
Ġshow s
Ġser ious
Ġread ing
ĠIs land
u nder
w atch
ĠM om
Ġdire ction
Ġext ra
ĠAlex ander
Ġl ying
ĠN e
are t
Ġsh it
Ġe ast
Ġconc ern
f ace
ut y
pe red
Ġt all
Ġter m
b out
i ers
gg ie
Ġcreat ed
d om
Ġse par
Ġ2 4
ic ro
al a
Ġpro ject
pl oy
Ġwonder ful
d a
ad s
ant on
so ci
pt ion
Ġsc ar
D e
Ġb ang
Ġl ength
ĠM ary
ĠM ark
ĠO lymp
Ġ201 0
i pe
ĠC up
Ġhand le
Ġcar s
is y
ĠM on
Ġgo in
Ġplay s
Ġbr idge
Ġpick ed
Ġalb um
. âĢĻ
Ġ vers
Ġm ass
Ġpop ular
s u
st op
ĠInd ia
ex as
s et
Ġh ide
Ġe p
Ġwe l
Ġ2 1
Ġfl owers
Ġpict ures
Ġocc as
k a
ra ft
ck s
Ġcon vers
Ġa ut
it es
Ġc ard
ist ory
Ġin fl
Ġar my
Ġp ers
ri an
Ġd ue
ĠL ou
Ġor ange
Ġsing ing
v ille
Ġc ensus
ell y
Ġun cle
ĠS und
Ġcir cle
Ġspec ies
Ġegg s
b a
Ġcomp ut
Ġpick s
Ġdraw ing
ĠS am
ĠE ve
Ġh y
Ġre pe
Ġam ount
ĠSt ate
Ġrem ain
er ve
it ions
ir m
ĠJ ust
anc ed
Ġterri ble
Ġw ag
it ary
ĠS chool
ĠM ex
ĠA ir
R e
w r
ess ion
Ġtalk ed
Ġinv est
Ġcent ury
t urn
u ge
Ġf at
Ġ2 3
Ġdisc uss
A LL
p oint
Ġsp ell
Ġsm ile
Ġclim b
ĠL ord
ĠU S
Ġes pecially
k in
Ġpart s
Ġact or
ograp hy
E C
c her
L isten
k iss
om ing
Ġe ars
ell a
Ġgr ass
Ġtow el
Ġsp ent
ĠO N
Ġbig ger
a ven
ro ll
hy s
z a
at o
pp ing
Ġpre p
Ġinter rupt
atur day
ĠLea gue
Ġm a
Ġd ate
ch i
Ġsurpr ise
Ġs le
Ġturn ing
Ġ201 1
Ġvi ol
P er
Ġp ounds
Ġear li
Ġob s
med i
M e
Ġr is
Ġback ground
Ġ201 2
Ġche ese
b ack
u el
Ġm m
ll ust
Ġwor se
Ġman ner
Ġpo cket
ĠJapan ese
Ġask ing
Ġdiffe rence
Ġca used
Ġc ouncil
ĠC o
ur al
ant ly
Ġp ink
ar i
ĠB ro
Ġal ive
Ġdire cted
id s
uck les
Ġch icken
Ġcr ack
Ġcour t
olog y
b es
ust om
ĠW ith
Ġbel ow
Ġset tle
Ġprom ise
is f
am und
em s
Ġtw elve
ra ph
Ġte ch
ĠQ ue
A r
as hed
ĠA re
f our
t r
Ġthan ks
de red
Ġcl osed
Ġt it
Ġaf f
ĠRep ubl
Ġs na
Ġb asket
al t
un ting
Ġke y
laugh ing
ĠW ho
ol f
Ġfin ally
br other
Ġsk y
Ġresp ons
C ar
p ose
Ġh i
out her
ĠC he
G ive
ing ly
ro at
ĠE leanor
Ġbl ank
ener al
Ġcon ne
ans as
Ġra ised
B y
Ġf le
Ġbe yond
Ġst ren
Ġref er
I GH
i que
ĠJ www
Ġint ro
omet imes
Ġhelp ed
Ġpolic y
Ġt end
Ġst age
Ġst ars
ĠF red
c ar
v ious
Ġm ix
st r
ru ction
up id
Ġjo ined
Ġ &
ic o
us hing
ĠS T
ab ly
os aur
igh s
ĠM ad
omet hing
f ield
m it
y er
Ġf ool
ad ed
S p
Ġd eter
ĠT exas
ra ge
Ġman age
con om
Ġ201 6
. _
w ise
op h
AM Y
Ġb rief
Ġm um
hi re
ĠIt s
Ġcle ver
Ġsqu are
z en
re y
Ġno body
Ġim medi
Ġopp os
Ġcommun ity
outher n
Ġc overed
ĠA my
Ġas leep
Ġsp oon
Ġ et
p ers
et t
U m
in ct
ĠS er
Ġmag net
Ġdest roy
Ġd irty
Ġcr it
s n
re ct
Ġlike ly
Ġph ot
Ġinclud e
1 5
Ġth reat
im ent
Ġpro cess
Ġag ree
iv il
Ġposs ib
ĠHow ever
ĠTH AT
Ġar rest
w orth
Ġb ound
Ġd en
ra w
a f
Ġy e
Ġg rew
as p
ĠM art
ĠK e
S T
Ġre se
ĠR ob
itt ee
ther n
Ġstren g
Ġh m
Ġsc ared
az ing
Ġspe ed
Ġw est
ur b
Ġco at
Do es
K e
L A
Ġf re
ĠD ist
Ġsp ring
ough s
ag o
ĠQ u
f ive
v ocal
Ġthink s
Ġsp l
b re
c er
u ce
ov ed
ĠSte ven
Fr aser
Ġr ace
ĠJ ones
Ġfam ous
ĠGer va
Ġcrow d
c ul
g en
n s
ĠD ad
Ġpleas ure
y le
us es
ĠP ark
Ġ1 00
Ġnum bers
Ġnin et
ĠSund ay
V ER
Ġd rew
Ġf em
ld en
ĠC ome
B l
Ġc ru
ot hy
ch ie
ash ion
Not hing
Ġprov ince
W ould
it or
Ġf right
Ġfres h
Ġl ines
Ġup stairs
Ġspeak ing
ĠGo vern
Ġtot al
Ġme at
ĠD or
Ġdri ving
ĠGerva ise
P ro
in i
Ġs ens
ĠInd ians
ĠChar lie
ĠPe ggy
E ven
o ly
Ġhe ro
Ġn aught
ort un
Ġair port
l ine
Ġb attle
Ġwe ap
ĠB ill
ĠE ll
Ġele ction
Ġsat isf
ĠGerman y
Ġp enc
Ġg ate
Ġbro ad
phan t
Ġnatur al
Ġd ig
F RI
an ny
Ġh iding
Ġr ough
iv id
ober t
Ġap art
ha nd
er ved
at ic
ĠD em
ĠG l
H H
P e
S ure
en ry
Ġst ream
ĠA c
ci ence
Ġvar ious
b ig
Ġt ries
Ġt eddy
ad emy
Ġcall ing
Ġreg ular
Ġ ident
Ġd in
Ġgo d
the se
Ġgr ad
Ġexpl ain
ĠHar ry
M um
j a
ar m
ve y
ĠE ast
Ġset t
Ġcap tain
Ġmiss ing
Wh ich
Q u
ĠC oll
Ġany where
Ġ200 8
Ġarri ved
ĠRos amund
M hm
o om
Ġs ize
ĠF ather
est s
Ġneed ta
19 9
I F
u x
re me
ant ic
Ġway s
Ġter ms
Ġsk in
Ġsim ply
inite ly
J O
Ġf ol
Ġst ories
Ġsand w
1 2
F rom
ab les
Ġfl at
c ast
as ons
ĠB E
ong ress
ber ry
ac hing
ar ah
Ġth rew
Ġser ved
Ġbir ds
wh oops
3 0
Ġl ion
as ure
Ġfor med
Ġu nd
ĠE m
Ġend ed
ĠCha mpions
ĠChrist ian
Ġoffic er
ĠLo ire
ha l
ar th
ĠP arty
Ġlar gest
Ġstep s
f it
Ġbe ll
Ġfor th
Ġst orm
ep end
ĠAn ge
bur g
M U
i ally
ĠW ind
Ġ2 2
e re
Ġt ight
en ces
Ġn ur
Ġsleep ing
Ġorigin al
M ay
Ġt ou
it ude
ĠH elen
Ġpl aced
The se
ĠMar ie
Ġjo in
st it
ĠS an
Ġr ich
ord er
Ġra bb
Ġent ered
Ġhappen ing
C E
Ġw ound
Ġd ressed
Ġnot ice
Ġpl ane
Ġsu ff
Ġro se
Ġrel ations
Ġl aid
Ġcon side
Ġgu ard
Ġsurpr ised
Ġconside red
Ġstud y
M ama
er land
ĠS aturday
Ġpe ace
K AT
N e
Ġon to
Ġmark et
Ġt ax
ĠL ady
Ġstart ing
Ġhard ly
Ġang ry
M ichael
it a
or ing
ac hed
Ġ201 7
ĠBrad ford
l og
ĠS ch
Ġsp read
ĠIre ne
Ġwel come
M iss
V ery
m ine
p a
s il
ĠM us
ĠM ac
pp er
Ġcoll ege
Ġst upid
Ġ2 7
Ġpr ay
Ġwhe el
ic ious
Ġsha pe
Ġmost ly
i pped
Ġb uck
Ġto wer
ĠW here
Ġen v
Ġpur ple
Ġnin ety
s orry
Ġlov es
Ġfin al
Ġmiss ed
EN T
Ġinvol ved
an ch
ed y
Ġl aug
ĠF OR
Ġtr ad
ĠSt reet
Ġmach ine
g l
Ġpl ate
Mr s
T r
h in
Ġyou th
Ġ2 6
Ġsim ple
Ġfil m
c raft
Ġt one
Ġb omb
Ġc ult
Ġm ir
Ġu r
iv al
Ġshar p
A K
ĠB ra
ĠF rom
ĠR ed
Ġ2 8
Ġcab in
Ġlaug hed
A d
L Y
T wo
Ġm er
Ġp et
ĠT ur
and a
Ġem ploy
1 1
b oy
er gy
ĠC ouncil
ĠH igh
Ġsw ing
Ġearli er
le cted
oo th
our s
Ġag ed
Ġfight ing
Ġnaught y
ĠO f
Ġ( )
Ġact ion
I ON
or ough
Ġshe ep
Ġl ap
Ġn et
ct ions
Ġrad io
Ġfor ty
Ġgood ness
ens ion
Ġocc ur
Ex cuse
ĠRic hard
Ġknight s
l ot
Ġp an
ens ive
Ġcomplete ly
itz erland
H istory
f ather
out s
ous in
ail s
Ġ18 6
Ġple ased
2 00
I llust
Ġd ru
Ġthere fore
ĠJ enn
Ġcomput er
C AR
m ake
Ġre act
ĠC or
Ġare as
Ġtw ice
Ġcl own
iz es
Ġsupp er
Ġdanger ous
Ġann ounced
d addy
ĠSw itzerland
Ġsus p
Ġconvers ation
Ġw ake
or ks
Ġtr ick
Ġfall ing
ĠM E
Ġse vent
Ġse arch
od ay
ok en
Ġlad ies
5 0
W as
an ish
here d
ĠO K
Ġfall en
r im
an other
Ġp hys
le ar
us ion
uh uh
ĠDist rict
Ġninet een
' ?
om a
Ġth roat
ra b
Ġact ress
Ġeas ily
in al
ĠI S
Ġwe ather
s m
Ġc ell
Ġd uty
Ġ2 9
ĠO k
ian ce
Ġmov es
Ġpolit ical
Ġstru gg
p aper
Ġc uri
ĠL a
pl es
Ġsc ene
Ġmist ake
Ġhous es
v an
Ġb ite
ot a
Ġc rew
ar row
Ġgr ou
Ġ200 7
Ġopp ortun
Ġdecl ared
Ġemp ty
Ġpuzz le
Ġso cial
ĠR am
Ġ201 3
ĠCh ic
Ġcha p
Ġ200 6
Ġesc ape
Ġfill ed
g ress
Ġp ir
le br
ĠH arr
Ġsh irt
os h
ĠA ward
ather ine
Ġhig her
I M
ol a
ĠMin ister
O ur
Ġw it
Ġhe llo
Ġnot e
ĠB er
Ġun less
Ġ5 0
oint ed
c ould
d at
u ke
Ġ )
Ġ ide
Ġr ate
em an
oc key
Ġlear ned
Ġe conom
Ġall ow
Ġen c
ung le
Ġquar ter
Ġnecess ary
re g
oo s
ĠJ esus
oc rat
Ġwin ter
Ġpenc il
Ġb oot
ĠM at
Ġsu it
Ġco ach
Ġfell ows
Ġexc ited
Ġtem per
Ã ¼
Ġn ature
Illust ration
ĠI I
ig s
ĠUn ion
Ġcol ors
Ġmention ed
. ,
a e
Ġm erc
Ġat e
ra in
ive ly
ĠHe y
ĠAl bert
Ġperson al
Ġhon est
ĠP ort
el est
Ġche m
Ġwalk s
Ġpubl ished
Ġest ab
Ġinfl u
th ose
Ġapp l
Ġfly ing
Ġstreng th
S ir
um ber
Ġsing er
Ġadd ress
Ġpull ed
Ġluck y
Ġep is
p ro
ar ies
Ġn ea
Ġr oof
Ġpl ant
Ġ200 9
Ġmil itary
G od
v o
Ġli ps
Ġrel ig
Ġaw ful
Ġth ick
im it
ĠM other
Ġde g
Ġen emy
Ġim m
Ġb le
Ġe ager
ĠC reek
Ġcl ock
Ġoff er
Ġ201 4
ĠCha ir
Ġexpect ed
Ġpract ice
Ġspir it
S C
no ise
Ġsur face
he art
Ġf ru
Ġn on
uck er
Ġdes k
Ġdevelop ment
i j
u ps
ĠG eneral
Ġbes ide
Ġmam ma
b ell
at ors
Ġper cent
Ġmed ic
Ġimmedi ately
B r
en ing
Ġof fe
uck y
Ġfa ith
ĠLou is
O P
Ġt ong
Ġde b
Ġby e
be red
Ġpr oud
Ġstand s
Ġwat ched
b ook
Ġp un
Ġsc ream
C ould
D ad
he m
Ġb ill
Ġp ath
ĠH enry
Ġhad n
Ġad vent
ke ep
el p
l or
Ġs oul
Ġin j
ĠT V
if y
Ġsh ore
Ġshould er
ĠIn ternational
Ġkeep ing
r am
Ġm oon
Ġin qu
el ess
Ġus ual
Ġright s
Ġac qu
min ist
Ġb other
ar ily
ĠJ ul
Ġra p
anc he
e very
Ġha m
ic le
id den
Ġsh oe
Ġpl ain
ĠL aw
ci ety
Ġapp re
Ġche er
R US
Ġnot iced
col m
Ġ iron
Ġb oo
Ġj oy
Ġsa ved
ob ile
Ġpur pose
Ġmess age
Ġwood s
Ġhur ry
ĠL ittle
Ġear n
Ġtown s
Ġfa ult
Ġt iny
Ġa ud
Ġv an
ee ch
Ġprom ised
Ġocc up
Ġoccas ion
Ġdin osaur
Ġgrou ps
d ers
s how
ac hel
Ġsp r
Ġimp ro
Ġmot ion
B ob
N ew
S E
i us
Ġun c
ĠSte ve
um mer
Y OU
ic ated
ĠS y
Ġsa il
Ġgr own
Ġind ust
Ġdog s
Ġfig ures
Ġprofess ional
ĠAustral ia
G u
Ġb unny
ir a
ĠB o
ce ly
ab oo
Ġpr im
Ġapp le
N ever
Ġm ater
Ġo w
Ġl oss
Ġe mb
Ġrem em
ĠCh ris
Ġlight s
Ġdire ctor
elest e
1 6
f all
Ġst one
ĠM att
act ually
Ġour selves
u gg
Ġd ancing
ur ity
Ġcontin ues
Ġnorm al
D avid
W H
r ican
Ġst ates
ĠG O
Ġag reed
Ġbed room
Ġele phant
Ġwear ing
Ġiss ue
Ġswim ming
Ġf ashion
Ġex ist
Ġbeg in
Ġfif teen
Ġproduc ed
H er
j o
Ġc ities
Ġstr uck
n on
Ġbut ton
Ġbl ess
Ġev idence
Ġmur der
ĠAc ademy
ce nd
are n
ĠK ore
Ġen ergy
Ġsm oke
Ġhot el
Ġexper ience
Ġcal m
Ġav ail
Ġremark ed
Ġut ter
C eleste
] ,
e er
ut ch
Ġre vol
Ġn urs
Ġmean ing
Ġcount ries
Ġind ivid
Ġgentle man
Ġm ud
Ġm icro
Ġpl ans
ĠF ort
Ġabs olutely
ĠDor othy
U D
v i
Ġc art
or ter
Ġh uge
Ġfl ight
Ġhead s
d is
p os
Ġj our
Ġpl enty
Ġtell s
led ge
Ġlead er
I E
W E
c ue
as c
oo per
Ġdo c
ĠS ant
ĠL em
ĠR obert
Ġ201 5
go ing
Ġlisten ing
Ġcho ice
C he
a ign
ir gin
ĠS en
ĠM er
ĠC at
our t
ĠW H
ict ion
Ġatt ract
Ġele ven
Ġsong s
Ġgun s
a res
e g
m ie
n ie
Ġwe ight
ĠB el
ĠD O
w ater
Ġp ool
ost a
Ġfe at
Ġco ast
Ġsm art
c oughs
ve ll
Ġj ungle
ov es
ord s
oss ible
R R
ĠG ames
ĠR o
ĠE n
as y
ot ed
ĠR oman
Ġrem ained
Ġgra ve
Ġhist or
Ġsold iers
A ye
r ated
Ġt urt
ĠG ra
end ing
ress ion
Ġdes p
Ġass ist
Ġed ge
G ot
P l
re es
Ġc ards
ut en
ul f
Ġgener ally
Ġeduc ation
M a
u ild
Ġf und
Ġsu gar
Ġtra vel
ific ation
M an
Ġth ou
Ġwe ak
Ġn ap
Ġoffic ers
Ġmod ern
rill iant
Ġtast e
Ġl id
ĠA lf
ck y
os ing
pl ane
Ġte xt
Ġce lebr
ĠDon ald
Ġpriv ate
I L
M B
Ġw estern
Ġd read
en ny
Ġbe ha
Ġbl ind
LL L
Ġperfect ly
E d
R em
er o
Ġin f
ĠM ont
Ġr ow
Ġpro ceed
Ġsit s
Ġclear ly
Ġdef initely
A m
C os
i ot
is hes
ed s
Ġper m
Ġcare fully
Ġexc use
Ġbra ve
Ġt ears
ar ly
Ġwas te
ĠJ ean
Ġdown stairs
ĠK itty
ines e
Ġtri p
Ġdisc overed
iron ment
g ain
Ġl og
op en
ĠD id
Ġsh ips
Ġru le
Ġimag ine
IGH T
k ins
ĠThe ir
ĠO kay
Ġpr ice
Ġbelie ved
ĠCar ol
ĠBl ack
B ye
r id
Ġc ustom
Ġf irm
im a
ĠS id
ĠM or
ur a
ĠH am
Ġvers ion
Ġtong ue
! '
ha ppy
ve re
ĠM any
ĠH i
Ġcont ract
Ġball s
On ly
OM E
Ġe h
Ġe mer
ch uckles
Ġsp oken
Ġyoung er
Ġsecond s
cha ir
Ġbrother s
Ġfix ed
er m
us hes
ĠC han
ĠW AS
ĠJ o
C on
Ġt ap
Ġc ro
Ġp ound
Ġmot or
Ġcirc um
Ġdem and
J J
z es
Ġw a
Ġf aces
us ing
Ġne g
Ġsa ke
Ġsur v
Ġdri ver
Ġdefe nd
cell ent
S ha
f ish
Ġs ides
Ġh ill
ic y
Ġno min
Ġst airs
ell e
Ġcall s
Ġpr int
Ġhon or
Ġst ret
ie l
Ġsh own
ict or
ild a
Ġ18 7
sh ould
Ġcho col
Ġnur se
A VE
n ic
ar ry
Ġhe at
ĠR E
Ġar row
Ġbr ush
ock s
Ġoppos ite
Ġopportun ity
1 4
c ut
n i
Ġt aught
Ġw ed
Ġd are
ĠT wo
ĠM um
Ġne ither
ist ic
Ġwor ried
Ġafter wards
Ġte ach
Ġmon ster
Ġdec ision
Ġcra w
ĠPl ay
e at
i ber
Ġ CH
Ġb al
ĠD ou
act or
look ing
Ġlaw yer
Ġmod el
_ .
d ad
o ons
ir ing
Ġrun s
ĠFl or
ĠChar les
ĠItal ian
ĠM id
Ġra il
Ġfound ed
Ġanx ious
Ġp ill
Ġsc r
Ġdist ribut
Ġent er
Ġmount ain
ĠMal colm
c y
ĠM ed
Ġsha d
Ġadd ition
Ġbra in
ĠEurope an
ĠBob by
O D
ĠM ot
ĠB ert
ĠHe re
Ġpain t
Ġsn ake
Ġnorth west
Ġpleas ant
Ke ep
W ow
Ġo x
Ġp a
s ed
Ġw rest
Ġd ouble
Ġhelp ing
Ġcent re
Ġinclud ed
Ġkn ife
Ġjour ney
n ers
Ġt iger
he e
ĠC ass
Ġcom ment
Ġhar m
Ġacc ording
bl ue
Ġfore st
Ġproper ly
1 3
Ġto ast
ist an
Ġsp eech
Ġcont act
Ġstra w
h od
Ġt ar
Ġre ck
Ġch oose
Ġprep ared
Per haps
U K
m aking
Ġc hat
Ġv ote
fe ction
ang le
Ġ200 5
arent ly
Ġeff ort
Ġ #
Ġl ower
Ġan t
ĠD ada
Ġopen ing
Ġbath room
F irst
O oh
T O
b ly
o id
ic ate
ĠT ony
ĠW il
Ġde re
ond ay
iz ing
ĠCh urch
Ġserv ices
Ġev ident
Ġr ange
Ġgr owing
Ġbud get
Ġsandw ich
h ost
Ġp in
ac he
Ġfor ces
ĠC r
Ġeight y
aur a
ĠSec ret
Ġrabb it
J ack
u a
ak ed
Ġfall s
Ġmag az
ĠSp anish
Ġwall s
Ġstru cture
ou red
Ġm ut
oo ting
ĠM inn
ĠP al
ĠY our
Ġkind a
Ġsur round
ĠQue en
he st
re ally
on a
Ġd un
en ne
ĠP ays
Ġqu ality
Ġfair ly
Ġcomfort able
igg les
ĠChair man
G reat
s ure
Ġ rom
Ġs our
Ġc ivil
Ġex ec
Ġimp ossible
ĠCar l
ĠSm ith
ocrat ic
B omba
G E
ĠM el
ur ry
ĠG old
ĠN av
so ft
Ġind epend
Ġcontin ue
Ġparticular ly
Ġpap ers
C har
c hard
om en
ri a
Ġst ro
ĠT hank
ĠA ct
the w
Ġbring ing
omp any
Ġvict im
, âĢĻ
L ES
f ly
Ġt un
Ġp ants
per ing
Ġschool s
IT H
Ġcamp aign
Ġcor rect
Ġconcern ed
D S
Ã º
Ġc ases
ic ation
Ġdo ggie
ĠT ed
ĠR and
Ġwill ing
ci p
Ġsc rew
Ġob viously
Ġh unting
ab r
Ġsome what
ap a
Ġstay ed
Ġeas ier
ĠRe g
Ġreac hes
sil ver
Ġchocol ate
* *
Ġst yle
ĠM il
Ġman aged
ĠMar g
Ġwag on
Ġinvest ig
Ġsett led
Ġl iter
ĠE r
ĠCh ina
ĠGeor g
ĠDo ctor
Ġcond ition
Ġc anton
an ing
al y
Ġe ld
Ġcon du
Ġkne es
ĠCan ada
ĠGu y
Ġloc ated
Ġris k
L e
m ar
Ġs cient
Ġg ro
Ġbe ach
ĠS ing
ĠB at
Ġcan cer
Ġsu c
-- "
lot te
Ġ ir
ac hes
ea ks
Ġknow ing
ĠD ep
Ġcl aim
ĠSt one
Ġfem ale
Ġsuc ceed
S e
re al
Ġm ult
Ġo il
es sel
Ġl atter
Ġsl aves
Ġsmall er
Ġcent er
Ġobject s
C hi
m n
w ing
is a
at oes
Ġth us
Ġfl ower
oun ce
Ġmove ment
it ched
no log
se qu
Ġdo zen
Ġst aff
ĠS arah
Ġwor st
Ġv ac
Ġaf fect
app y
m ined
Ġt ask
Ġcon v
Ġpre vious
Ġcol onel
Ġret ired
Ġclos er
P oss
s ighs
et ch
Ġpre fer
Ġop in
Ġrese arch
$ =
c are
Ġw ha
Ġp sy
ent ed
Ġdo ors
Ġu ne
ĠS ea
all as
ĠF oot
Ġchan ges
li ament
Ġbeg ins
ĠSc ott
Ġprodu ct
Ġtit le
Ġcr ime
Ġoffic ial
Ġsus pect
Ġrul es
l ah
Å į
Ġp ony
Ġh o
Ġk itty
Ġr out
Ġpo et
Ġpossib ly
Ġrap id
Ġcircum st
I A
l ow
Ġb oss
im ate
ĠR y
Ġpre vent
og raph
Ġshow er
Ġwind ows
Ġdevelop ed
SS S
Ġstat ement
Ġevent s
eder al
ĠMart in
ĠFlor ida
B C
S ay
ha h
en a
at han
am n
Ġst ock
ĠM ost
ick ed
Ġplay ers
ĠV irgin
Ġair craft
Ġappear ance
Ġrepe ated
Ã ¨
ab ri
ĠPar is
ashing ton
as ing
al ing
ĠT ucker
ĠP ak
ĠG reen
Ġor dered
Ġbit s
Ġfind ing
Ġstay ing
ĠWh ite
G l
H old
S c
g i
t ry
Ġa ver
on se
Ġp air
Ġfor ced
ent al
Ġdo in
ĠC O
um an
ber g
Ġlead ing
Ġs oup
is n
an ning
Ġme al
âĢľ âĢĺ
Ġtr oops
Ġfl ag
Ġrock s
Ġmedic ine
f a
g a
s pect
Ġan cient
Ġman ager
add er
Ġwr iter
Ġres ol
Ġblood y
Ġcast le
p en
u f
Ġt v
it i
is her
Ġf old
st ood
Ġkne e
ĠAs ian
Ġslight ly
Ġscar cely
Ġenv ironment
Ġa ward
ent h
ĠO ld
ish ment
Ġrem ind
Ġsha ke
Ġfeel s
Ġteam s
Ġsign ed
b et
k er
at ory
ce an
ore s
Ġexc it
igs aw
Ġappre ci
Ġavail able
F uck
p et
al ed
ĠL os
be y
ĠFr iday
Ġele cted
Ġpain ting
Ġsuccess ful
P aul
l ittle
Ġf oc
ĠT y
st e
han g
Ġcar rying
ĠRuss ian
pret end
ĠMex ico
Ġf ishing
th ink
Ġne at
ĠP et
Ġpull s
Ġtele phone
Ste ve
ĠJenn ie
Ġfru it
b ow
r ate
Ġt ie
it ation
Ġm ail
il ian
Ġknow ledge
ul ous
Ġsp osta
Ġv essel
Ġfav our
fort un
Ġcop y
ot ion
ĠM Y
Ġwh ist
ack s
ĠCh inese
ĠRoy al
ĠRepubl ic
uten ant
Ġt a
Ġhe aven
Ġst re
ĠH E
op s
ol s
Ġact ing
Ġsil ent
iet y
Ġdrink ing
Ġtrain ing
ĠPe ople
Ġforgot ten
Gr and
Ġdeter mined
T w
[ .
g n
Ġt our
on ly
Ġf ought
ro st
ĠA h
ĠB ig
Ġpl ants
Ġaf ford
Ġch oo
tain ed
Ġreal ize
Ġsix ty
Ġdec ide
ek aboo
Ġb in
Ġf ancy
Ġas soci
Ġbut t
ĠR og
Ġtr ade
ok ing
ric a
Ġsuggest ed
Ġet c
f at
Ġc ute
Ġd om
Ġd ise
ĠA lden
ter ing
ĠW E
Ġ20 00
Ġsl ide
Ġkeep s
Ġ200 4
Ġblank et
H uh
Ġc red
Ġor ders
pl ace
Ġpres ence
Ġob l
Ġdoll s
ĠCan ad
ĠLuc y
Ġmem ory
Pe ople
ĠColl ege
A bout
m om
ad o
ĠM ic
ĠC hild
un s
ĠSt an
Ġmar ry
Ġrel ated
ĠGer ald
Ġknock ed
Ġbur st
N N
Ġf ond
ĠI ll
ĠS im
ĠS ummer
Ġsa f
Ġfeel ings
ĠFr anc
Ġstop s
Ġ200 3
Ġext reme
Ġmag ic
Ġresp onse
Ġhol iday
Ġoffe red
Ġy ell
Ġh omes
ĠL ab
ud d
ult an
Ġarr ange
Ġrelations hip
u le
Ġthe e
Ġb i
Ġb ike
le nd
ĠA T
ĠH y
um ents
Ġthr own
duc ed
Ġpal ace
s es
Ġha ha
and y
Ġup set
ĠE very
who a
Ġbar n
ĠChic ago
E ll
a a
Ġm ate
Ġto es
Ġl ake
Ġre lease
um n
Ġde but
Ġus es
act ion
av ing
cc ording
Ġdra gon
Ġaw are
Ġresp ond
Ġhang ing
[ $=
e le
r ick
Ġt id
Ġp red
ke nd
ĠB ern
iz za
Ġkind s
Ġche ek
Ġ199 0
Ġgrand ma
Ġrequ ire
e ff
g ent
Ġg ang
ce l
ĠD ay
ol ars
Ġgreat est
Ġgovern or
ĠPro v
Ġrecogn ized
lah oma
S ince
is ions
ĠD ick
ĠD av
ĠL at
Ġshould ers
ĠAn ne
aj est
ĠCol onel
know n
u it
Ġw an
ri ble
ch o
il a
ĠJ ew
Ġpro gress
ne e
aw a
Ġ198 0
ĠOlymp ics
y o
Ġb atter
Ġn arrow
ĠJ er
ĠF enn
Ġsp orts
Ġpart ner
Ġthr owing
Ġthought s
Ġstr anger
Be fore
Ġexcit ement
I LL
ĠB est
Ġtr unk
ES S
ĠAr k
Ġval ue
M other
k o
w hile
Ġb are
ĠM ount
ĠD uring
ĠW ashington
Ġde ck
Ġlar ger
ĠChar lotte
Ġcray ons
Ġnor thern
2 4
A ct
b an
Ġ ..
Ġno vel
ĠV ictor
Ġmatter s
Ġmag n
Ġremem bered
T om
Ġm or
Ġf urn
Ġf ully
ĠC amp
ĠD iv
ink y
Ġshow ing
Ġwait ed
ON E
ĠSp ain
Ġpat ient
ĠOr der
n ine
s hip
Ġs ite
ĠN ight
Ġneighb or
d ie
g iggles
ol ic
ĠR ight
Ġfour th
ĠOk lahoma
Ġwit ness
K N
P ut
t w
Ġa chie
in c
ing u
ĠA wards
ĠH ay
Ġex erc
Ġ( ;
Ġevery where
Ġpre par
Ġdr ama
Ġdet ect
Ġnurs ery
Ġbe nd
Ġsc reen
Ġad minist
Ġjud ge
Ġfright ened
D r
b ing
Ġs ch
ĠT ra
ĠA nt
il ities
ig an
ĠR em
Ġam azing
Ġcou rage
Ġesc ap
Ġcompan ion
A mer
p ha
Ġf ox
ĠM ore
rom er
anna h
Ġbu ried
Ġstud ied
Ġm o
Ġd ying
at a
ro ad
Ġsqu ee
Ġexpl ained
ĠAnge les
Ġmicro phone
' ,
Ġ --
Ġs ac
ĠT own
ĠM ike
ĠM onday
Ġme re
ol es
ĠN et
hi gh
Ġro b
Ġsm iling
Is n
Ġfro gs
ĠSc ot
Ġestab l
a ult
Ġc ousin
Ġp ushed
aw s
Ġser ve
Ġop ens
Ġinst ant
Ġquiet ly
Ġdirect ly
a fter
ic les
ĠM o
ch ief
ĠB oy
ate g
ĠO x
Ġqu al
ĠK at
HE R
Ġpass ing
app ing
Ġpower ful
Ġdat a
US T
ĠAir port
C ha
K AR
Ã ¤
Ġb od
ing er
Ġf ile
Ġgo al
ĠB ay
ĠH aw
ast y
land s
Ġtra il
az y
Al right
Ġsoft ly
D E
ĠS l
Ġj igsaw
Ġgreat er
Ġsent ence
Ġrep ly
Ġz oo
Ġwed ding
i ents
Ġf ra
Ġp ra
ĠI r
ch ing
Ġro les
uc lear
ino is
Ġsaf ety
O L
f ers
m und
y ear
on ed
se mb
ĠS us
Ġor din
Ġ19 0
Ġmiss ion
Ġplan ning
II I
Ġconst ruction
ĠGovern or
B en
e ed
Ġ ï¿½ï¿½ï¿½ï¿½
Ġt im
Ġbe e
Ġst ir
ur ance
AN T
ib ility
Ġbec oming
Ġinclud es
ĠVirgin ia
Ġaver age
I V
Ġb at
Ġpl at
Ġent ertain
Ġ4 0
Ġeight een
Ġpri ze
Ġopin ion
f le
w are
an i
as tern
Ġwe ird
ĠM os
all ey
ĠD el
Ġrec ently
Ġform ula
ĠĠĠĠĠĠĠĠĠĠĠĠĠĠĠĠ ĠĠĠĠĠĠĠĠ
Ġadv ant
An ne
Ġrecogn ize
ĠAf rica
Ġepis ode
Poss um
i als
in ary
Ġg ift
am ing
ĠP re
ven ue
Ġ196 0
ĠBar ry
Ġshop ping
Ġwhis pered
Ġexpress ion
ili ar
Ġw id
Ġp our
ĠD allas
Ġsh ook
ĠL ake
ĠL ee
ĠE ven
Ġfl o
ĠZ eal
Ġmain ly
fess or
B art
C T
b oo
Ġb rilliant
ab eth
Ġball oon
Ġdep art
Ġev il
Ġbow l
ĠGeorg ia
? '
s ix
Ġ ess
Ġb ub
Ġfor ms
ĠT ri
Ġso cks
Ġsh ock
ĠL aura
Ġstick s
a ed
ll a
Ġh unt
ent ial
ĠM ur
ĠH al
il chard
Ġshe l
Ġr ings
ish op
Ġ18 8
ĠMay enne
Ġmir ror
Ġturt le
Ġcircumst ances
b ie
c ream
w an
Ġs ink
Ġshe ll
ul ty
Ġsp lend
Ġ[ ?
Ġcar riage
Ġcont r
Ġwonder ing
Ġpap a
ourn ament
f rom
y ellow
he w
Ġc ad
Ġr iding
use um
ont in
Ġwee kend
Ġair plane
ĠBra z
ĠMarg aret
ĠIll inois
m ark
Ġd er
ro s
Ġar g
Ġtr actor
Ġ3 1
Ġ200 2
Ġmar riage
ĠCl a
Ġlangu ages
Ġproper ty
u gh
u be
he ast
Ġw ow
Ġs cience
Ġm ale
Ġf uss
ick ing
Ġqu eer
ĠU N
Ġdes per
Ġbeaut y
Ġrece ive
Ġfail ed
Ġtar get
Ġestabl ished
n ice
u ous
is se
Ġc y
Ġo o
Ġin no
Ġin ternational
all ed
Ġbig gest
Ġdep end
ĠBe cky
Ġve h
Ġshout ed
Ġsepar ate
t in
in ter
Ġy ards
Ġp ow
Ġse lected
ĠC om
ĠC atherine
Ġpl astic
ĠR es
Ġbr anch
Ġcook ing
v is
Ġw ave
Ġs ore
Ġf al
Ġg ently
ic ans
ver t
Ġre asons
Ġn ative
Ġas ide
ĠH AVE
ĠĠ Ġ
ep ing
Ġpro ve
Ġfar mer
ES T
Ġjob s
Ġpress ure
Ġcurrent ly
Ġperform ance
T ilda
Ã ¶
ĠB et
if fe
ul ated
Ġbo ats
Ġag ent
az ed
Ġtri be
gy pt
ĠTH IS
ĠKing dom
whis pers
Ġperform ed
N OW
d raw
Ġw ished
it ar
Ġth y
Ġse ction
Ġadv ice
Ġdream s
Ġelect ric
ĠChampions hip
Ġmagaz ine
H a
d r
ri g
Ġse es
ell ig
ĠP ri
ĠR ock
Ġrem oved
Ġcont ain
Ġinter view
Th ose
Ġ197 0
Ġhur ried
Ġnorm ally
ĠItal y
Ġdun no
E ve
s a
Ġa im
Th ree
play ing
Ġrequ est
Ġtot ally
Ġfre qu
ĠWind ows
ĠArk ansas
, ]
2 2
S omething
p ush
ĠS un
ĠC ourt
ĠB ur
ul ations
Ġvo ices
Ġeng aged
Ġdescri bed
Ġentire ly
g reen
Ġh ook
oo ke
am s
ĠD is
ĠD utch
Ġdis m
Ġ200 1
Ġter rit
Ġcent ral
Did n
sc ream
Ġdisapp eared
Ġfort une
Ġhig hest
U GH
Ġo dd
Ġth in
ĠS aint
ĠR uth
ous ers
ian o
Ġcha mpions
Ġexc iting
Ġart ist
Ġresult s
Ġtrad ition
Ġindivid ual
a ft
Ġs outhern
or se
Ġp ale
Ġin ha
Ġst om
Ġj ail
ĠW omen
ĠL O
Ġact ive
Ġcr ash
ĠRuss ia
Ġmat ches
ĠDem ocratic
d ro
p ress
w a
w ar
Ġf ac
ĠT w
op her
ĠP olly
os en
ap t
Ġother wise
ang ed
Ġeat en
Ġmet al
Ġwhe els
Ġmed ical
Ġincre ase
anche ster
" ?
it iz
Ġm ummy
Ġp atter
ic ations
ĠM aster
ĠA rab
ĠC ast
il ies
Ġj oke
Ġthr ows
Ġad op
Ġunder stood
ĠAr my
Ġt ur
Ġw ine
Ġy o
Ġg host
ad ing
am ily
Ġk m
and s
um bo
ge ant
ĠJ ud
Ġsome how
ĠE arth
Ġsm iled
Ġche st
Ġent r
Ġdro ps
Ġbase ball
Ġnews paper
Ġdam n
ĠAf rican
9 0
E E
Ġg at
âĢĿ .
Ġhel ps
put s
unt s
Ġtrans fer
Ġpos itive
Ġconst it
Every thing
Ġdam age
ĠZeal and
A lex
r idge
s ung
u zz
Ġ Ã
no thing
am ma
ct ors
um ble
ĠE gypt
Ġfriend ly
Ġpay ing
ĠBrit ain
Ġcru el
ajest y
L ea
O ther
Ġm ouse
ot o
her ry
ĠB ull
em e
Ġgentle men
Ġaut om
Ġtou ched
Ġide as
ĠFoot ball
ie ce
Ġv ot
Ġsc ore
Ġcomm ittee
Ġgl ance
Ġsign ific
Ġstud ents
Ġprov ide
Ġiss ues
Ġgrad u
ĠRo ad
aed din
M P
g ency
s qu
ĠM ill
Ġpart icip
iz abeth
ĠV an
Ġtalk s
Ġdes ire
Ġprov ided
Ġfore ver
Ġve get
Ġrespons ible
nolog y
H AR
I nd
w alk
Ġm ort
Ġp il
Ġhe sit
ĠH ER
Ġdra wn
Ġfair y
Ġinflu ence
ĠProv ince
E arly
M AN
Â ¶
ic ing
et te
ĠS al
ust ed
ĠJ ess
Ġend s
Ġrepl aced
Ġbene ath
D ada
Ġp ump
Ġg e
Ġn ation
Ġso le
ĠD ar
ĠN OT
ĠN at
Ġad ult
Ġoccur red
Ġreck on
M W
T T
v est
Ġw ipe
ing ton
am in
ĠT im
ĠD olly
Ġsec urity
Ġsl ave
Ġatt end
Ġdr unk
Ġfam iliar
Ġter ror
Ġcharac ters
Ġmount ains
Ġauthor ity
Ġdeg ree
Ġn ut
ri ff
Ġli ber
th ur
ol an
ĠE mp
ĠBr own
Ġinst r
ĠHar old
Ġfol ks
ĠSecret ary
C all
N ice
U CK
l aw
p ot
t alk
er al
is ha
il ty
ĠW olf
ĠG et
ong rat
ep s
ĠO ther
Ġgat hered
E n
c r
Ã ±
ĠB O
ĠG reek
ĠL ara
Ġapp arently
ĠAl aeddin
br ary
to gether
ĠAr t
Ġenjoy ed
Ġdise ase
B et
m orrow
p ir
p ull
y ay
Ġb isc
Ġf aint
Ġto oth
Ġp ant
Ġl oose
Ġre ve
ĠM ax
th row
ĠN ed
hi b
oc r
ER S
ĠBe cause
Ġsweet heart
Ġweap ons
ĠRam sey
Ġobl ig
S u
p icks
ou ra
Ġw ore
Ġf an
ĠM u
ĠH im
ind a
ĠMar illa
ĠPro fessor
Ġjump ed
Ġspec ific
iff s
Ġnea rer
ĠSant a
c ow
Ġt ummy
Ġp or
Ġit ems
Ġst ones
ĠS ov
ĠH ave
Ġsh ooting
ĠW ent
ĠE li
ost on
Ġar ch
OU LD
Ġinst ru
Ġposs ess
Ġste pped
ĠCent er
Ġdestroy ed
Ġchem ical
4 0
l ock
s que
u ght
Ġf art
al i
Ġme l
ĠL ook
Ġam b
ĠAs soci
point s
Ġweap on
C ause
Ġb ump
Ġc am
we re
AN G
Ġuse ful
Ġ199 4
Ġinv ited
oint ment
eng u
olog ical
iam ond
Ġsold ier
Ġtick le
Ġburn ing
Ad am
Ġexec ut
h un
Ġd im
Ġin vent
Ġli es
ĠH ill
Ġsu ffe
ag u
ond isse
Ġco al
ĠCh ief
Ġprop os
ĠBrad ley
rem ember
2 1
C om
J oe
M ad
l ong
Ġf ier
ĠS qu
Ġsa ving
go es
Ġeas tern
Ġlear ning
ĠBart y
ĠYOU R
---------------- ----------------
Ġgar age
ĠFranc is
Amer ican
F ine
Ġt ied
Ġha bit
Ġfor give
ĠM ajor
ĠB ible
est ival
Ġch osen
Ġbit ch
ign ed
Ġhear ing
Ġhor rible
Ġdro ve
Ġcook ies
Ch rist
Ġlift ed
ĠTur k
Ġearn est
Ġordin ary
Ġstom ach
O H
Ġg ir
Ġg ather
Ġl one
ĠB a
um m
ĠF il
Ġsp ill
Ġv ent
we et
Ġgr ate
Ġwar ri
sh outs
Ġ199 5
Ġ199 7
Ġmus ical
Ġclose ly
ourn al
ĠCanad ian
Ġf ired
Ġy ard
es ota
Ġh orn
ke ys
ĠS ultan
ĠC ongress
Ġso ciety
ab ility
Ġr ushed
ĠF anning
ĠL in
ĠR ush
ĠK ansas
ĠMiss ion
Ġ199 6
ĠAt l
Ġappro ach
Ġobs erved
Ġarrest ed
HH H
Ġcuri ous
A B
L ara
re c
ha d
Ġf ant
Ġbe ast
im me
ĠM i
ĠP h
Ġr ank
Ġr ush
ĠL ight
Ġcom edy
Ġra re
Ġown er
Ġcut ting
Sh ut
Ġaccept ed
Ġgall ey
Ġmater ial
b on
f in
Ġd ust
Ġf reed
ll en
ro g
Ġsh r
ĠF a
har ds
ile t
Ġcomp let
Ġbox es
Ġdark ness
Ġty pes
asp berry
ĠMinn esota
" ]
Ġc ash
Ġp ile
Ġp izza
Ġgo dd
ĠF irst
ond er
Ġsw itch
Ġac id
Ġ199 9
Ġdel icious
ĠWent worth
W ar
Ġl ack
st ead
ĠM ass
um ps
ge l
od es
Ġpro ced
cept ion
ĠBl ue
Ġfail ure
b el
l ers
Ġc as
Ġf acing
Ġg ained
ar ing
et a
ge nd
ich igan
iv ity
ĠSt ep
Ġthrough out
Ġmin or
Ġhigh ly
Ġkid ding
RI C
Ġreport ed
Ġintro du
A A
e ight
i est
t oo
Ġb ark
Ġb ones
Ġp ages
am my
Ġex cellent
Ġtr ousers
Ġgu ilty
Ġsha me
Ġra ise
anc hes
Ġown ed
Ġinc ident
ĠPr ince
Ġequ ip
Ġdesign ed
ĠOlymp ic
Ġdoc ument
2 5
A gain
M c
S m
c at
l im
r ant
Ġs en
en ced
Ġp ic
Ġl ord
." ]
ĠV al
Ġsm ooth
Ġcra ft
Ġtrans port
Ġcre ate
Ġintro duced
ĠRog er
Ġbod ies
Ġsplend id
K E
m ond
Ġto ss
ĠT er
ĠH ad
ĠF re
em ies
hm m
Ġpr on
gg ing
Ġcr im
Ġcont ribut
Ġchan ging
ĠSw ed
Ġpolic eman
view s
kiss es
Ġboot s
ĠPak istan
Ġt ough
Ġt ip
es ides
ĠS a
ĠW ITH
Ġcomp os
Ġchair s
ĠEd mund
enn is
Ġjack et
Ġcompet ition
Ġtech n
Ġadvant age
C ap
b al
m ot
r in
Ġn erv
ri er
ro l
ĠP an
ĠW ood
ĠG ar
ĠR ec
Ġbre aking
mp at
Ġbad ly
pri ate
rop ical
Ġstri ke
ĠJim my
ĠMat thew
Act ually
E l
Ġt al
Ġt ear
ou ds
Ġc itiz
Ġg or
Ġse m
ĠB oston
ab out
Ġsp ort
Ġcon cent
ĠU k
Ġco vers
Ġpick ing
Ġ199 2
Ġmet hod
On ce
ĠPat ty
G IN
U L
Ġm ap
Ġf aster
en ger
Ġwas hing
ĠS outhern
ĠB rian
ĠD a
Ġcon ce
uch i
Ġsl ipp
Ġinc red
ĠPr ime
Ġdiffic ulty
ĠGreat er
Ġinterrupt s
b ury
s l
Ġt ournament
on ia
Ġc ave
Ġc ats
Ġm ile
ĠC ross
um ed
Ġqu it
Ġfam ilies
Ġreal ized
Ġtri bes
Ġsign al
Ġpull ing
Ġrecord s
Ġprogram me
ĠCent ral
Ġactiv ity
Ġspr ang
Ġeld er
ĠDav is
6 0
D uring
K K
L ove
Ġw oof
Ġp ushing
Ġl em
ic op
ĠM et
ĠA LL
Ġli qu
ĠL ie
Ġpe as
Ġstr ing
Ġrest aur
bb ed
Ġdiv or
ĠCass on
A pril
M C
h us
i os
re ck
Ġd iss
Ġy um
ar l
us ic
ĠR el
Ġsee k
Ġtr uly
Ġbr icks
Ġun iversity
Ġres our
Ġdr own
Ġlist ened
Ġ199 8
ĠEd ward
Ġhurt s
Ġcand y
Ġsuffe red
g t
i as
Ġst ol
ĠM ichigan
Ġr ise
Ġsa v
eng ers
Ġcirc us
ĠAustral ian
ĠSu per
R os
se ll
ĠP ost
ĠW estern
ĠN E
ang ers
Ġmin ister
stand ing
Ġgi ant
Ġprot est
ĠComm ittee
Ġdru gs
H L
J UD
T oday
e ks
Ġs ang
er able
Ġb one
Ġf ence
Ġn uts
ĠS el
Ġse vere
Ġup per
ĠD E
ĠL ong
Ġcom mer
ĠU rs
fect ure
ĠAn n
Ġroll ing
Ġap artment
ĠGrand ma
Ġwound ed
Ġcred it
ĠOx ford
T S
b ro
Ġa id
Ġw ra
st ers
Ġint ended
we y
Don ald
ĠBe fore
ĠĠĠĠĠĠĠĠĠĠĠĠĠĠĠĠ ĠĠĠĠĠĠĠĠĠĠĠĠĠĠĠĠ
ĠSov iet
S ometimes
n um
t ies
Ġb order
ĠL ove
Ġeat s
Ġsure ly
Ġacc ess
ï¿½ï¿½ ï¿½
Ġdel ay
bye bye
Ġcross ed
Ġequ al
eal ous
ĠMex ican
F l
p ur
p op
Ġg ain
Ġl adder
un ning
ĠF rost
Ġsp o
No body
Ġim it
Ġlea gue
Ġser iously
---- "
Ġstand ard
az e
Ġheart s
arr ing
Ġhon our
Ġcapt ured
ĠAg nes
Ġsettle ment
ĠRepubl ican
Ġindust ry
Ġfeat ures
b ling
am ie
ĠC romer
Ġsp are
Ġtri al
19 8
Ġclot h
ĠRic hards
Ġhol es
Ġsle pt
abri ella
Ġequip ment
s k
Ġw aves
Ġc ongress
Ġp up
Ġg ay
ol ph
Ġdis p
Ġsm iles
Ġact ual
Ġapp ointed
Ġreg ret
Ġsweet ie
Ġsend ing
Ġprop osed
Ġlock ed
Ġhast a
Ġspl it
| |
Ġto ilet
ri al
ĠS erv
ĠB on
Ġr hy
Ġcon sequ
od d
ree ks
Ġpo ison
Ġun us
Ġkind ly
ĠYou ng
Ġrecord ing
Ġap olog
Ġav oid
Ġbes ides
Ġprin cess
Ġeff orts
ĠKore a
2 3
N O
r ough
Ġa ston
Ġw inning
Ġf oll
ĠC ath
um a
... "
ĠW al
Ġbr ings
ian a
Ġdis hes
uc ed
Ġtra ins
Ġpres ently
Ġmad am
Ġprodu ction
ĠAlf gar
Ġstre ets
G e
Ġm ama
Ġd well
Ġh idden
Ġst ern
Ġme as
ĠD es
el come
add ressed
Ġgreat ly
Ġcha in
Ġsign s
Ġbuild ings
Ġplan ned
Ġlad s
Sh ould
Ġcompan ies
Ġcand id
Ġaff air
I G
L uc
T e
m et
Ġa st
Ġthe ory
Ġb orrow
Ġc ough
Ġn ic
ly n
ea ble
ra el
Ġr oot
qu ar
Ġbr anches
Ġen emies
Ġroom s
Ġhard er
ĠAmer icans
Ġkill ing
Ġrecord ed
Ġkiss ed
ĠRep resent
Ġtreat ed
Ġnomin ated
Ġbal ance
Ġsour ce
Ġappreci ate
B E
W hile
z er
Å «
Ġa unt
no pe
Ġhe n
ĠS pr
Ġan ti
Ġsu ck
lf riend
Ġcl oud
ia lect
Ġour s
Ġcr own
Ġres ist
ail ed
Ġsy mpat
Ġrecord er
Ġpu ppy
Ġvict ory
Ġmix ed
ĠHarr is
Ġdistribut ed
J www
c od
c orn
Ġh ockey
Ġat h
ĠB illy
Ġpre cious
Ġhouse hold
St ay
whis pered
Ġmajor ity
Ġcompan ions
Ġfle w
199 9
care ful
Ġplat form
L O
R Y
b our
c a
s w
w in
Ġd oo
an o
ĠA p
ĠD et
ne w
AR D
ĠK im
Ġgu est
Ġdes er
Ġsw ord
Ġwond ered
Ġdoll y
Ġpur su
ipp i
Ġty p
ĠCon f
Ġroll s
ĠWar ren
Ġprodu ce
Ġbrief ly
Ġrapid ly
Ġlone ly
a unt
e es
o very
Ġw ire
Ġp add
Ġwas hed
se ven
Ġj ealous
Ġup side
ĠF in
ĠF ar
Ġsp eaks
ĠK NOW
Ġle ans
Ġcar r
Ġpre gn
Ġtra ffic
Ġhands ome
ĠJohn son
Th omas
Ġlead ers
Ġcrit ic
ĠAssoci ation
P E
f ound
Ġt ent
Ġdo ggy
ĠS ee
ĠS ince
ĠA be
ĠH ot
Ġso fa
ĠP enn
Ġsu ffic
Ġsc ri
eak ing
ĠDe wey
Ġbec omes
Ġdel iver
Who a
Ġdiv ision
Ġhop ing
ĠEll ie
Ġpill ow
Ġscr atch
M ore
s is
Ġb ent
Ġo oh
Ġp ension
ĠP en
ĠD en
ĠF ore
hi a
ne ath
Ġro pe
Ġgr ant
ren ces
Ġcr is
Ġsl ipped
Ġpoint ed
Ġph il
ĠTh ree
ative ly
Ġmed al
Ġprison er
j ack
Ġc ot
Ġd ump
om s
Ġal together
ĠR ay
ag ain
iss ippi
do or
Ġcol our
Ġ198 6
Ġorigin ally
Ġburn ed
vocal izes
F AD
b age
u y
Ġd ialect
Ġp ity
ic ide
ad or
ĠT hanks
st ery
ĠH olly
Ġmy ster
el ia
ud dle
cc a
Ġold est
Ġrec omm
bo at
Ġrel ax
Th ink
Ġattack ed
Ġham mer
ira ffe
Ġindepend ent
2 6
O ver
al ph
Ġu g
Ġse ats
Ġr ang
qu est
do g
Ġdist inct
ger y
19 7
Ġgrand mother
Ġcheck ed
Ġdiv ided
Ġorgan ization
J oseph
S it
r d
an cial
Ġp iano
ĠS H
ĠC ompany
our se
Ġr ising
ol it
ĠF e
ig ger
Ġsomet hin
int end
Ġbet ray
ling s
Ġcont ent
Ġchan nel
Ġdes ert
Ġbre ast
ib i
Ġ6 0
ask a
Ġtrans l
Ġexper ien
Every one
Ġmanage ment
Ġcult ure
olars hip
" '
H mm
M ost
Ġd ish
Ġth orough
Ġre jo
ea u
ĠC y
Ġde mon
ĠF ire
ĠR od
Ġag re
Ġbl ame
OU T
Ġthir teen
Ġexp ensive
Ġstud io
Ġcreat ure
het ti
Ġsatisf ied
Ġescap ed
Lea ve
O B
Ġp ushes
ĠL ike
Ġun fortun
Ġke ys
Ġconf idence
Ġfield s
Ġhors ie
ĠAdam s
Ġproduc er
Ġprofess or
mo ans
Ġclimb ing
ĠPort ug
Ġinqu ired
Ġemer gency
Ġevident ly
Ġnerv ous
H elp
M E
M ag
b ar
b ag
g ues
i ge
u ries
Ġ 0
Ġb unch
Ġd ea
Ġl in
om pl
ĠB uild
ĠR achel
Ġcl ap
av al
ile en
Ġbit ter
inn ie
Ġsix teen
Ġrel ief
Ġri fle
Ġsort s
Ġsister s
umb led
ĠWilliam s
ĠPer haps
Ġshad ow
ste in
Ġm ig
ed ing
Ġbe ars
Ġse qu
ĠB ang
ĠG irl
ĠK elly
Ġgr ace
ĠY ear
br ush
Ġ199 3
Ġpresent ed
Ġcook ie
Ġmark ed
Ġrequ ired
Ġdelight ed
Ġpers ons
Ġpir ates
Ġadvent ure
M ove
h um
z o
z ing
Ġs orrow
Ġo we
as ant
ĠA B
ĠH ello
ĠJ erry
Ġsp ite
Ġpro ved
Ġfl u
Ġch ick
oy al
Ġmom ents
Ġfour teen
Ġset ting
Ġaw ake
wr iter
stit ute
Gl ory
c ase
Ġc ents
Ġd uh
Ġf ed
Ġbe er
ĠM olly
ĠM ajesty
ĠB ook
ĠB urt
Ġsc are
Ġdec or
app ed
Ġless ons
Ġheav ily
Ġincre ased
Ġrepresent ed
Ġtend er
ĠGovern ment
Ġexerc ise
A IN
N at
d uck
g b
Ġw ise
Ġl it
Ġl amb
le ave
ad ium
ly ing
ain e
ĠW hile
ĠF air
ĠE ric
ho e
ov ing
per or
IS S
IS T
Ġcont est
Ġext ent
Ġpri or
Ġadv anced
Ġcontro ll
Ġleg al
ĠTe am
Any way
Ġbutter fly
orks hire
Ġsevent y
Ġpow der
Ġfart her
C are
f irst
n or
ou ri
re fers
Ġm ike
se c
st ick
Ġar med
Ġqu een
ons ense
Ġsw ift
Ġsoon er
Ġ199 1
Ġ198 8
Ġsqu ir
LE A
hel p
ĠEl izabeth
Ġregard ed
Ġdru g
Ġstrugg le
b i
s har
ha med
Ġst ove
ĠS ax
ĠC ons
ĠB re
ĠJ ason
Ġcl ient
Ġdes cend
Ġpass ion
ĠMiss issippi
ipp er
TH AT
nes day
ĠRob in
B ill
M ake
l ots
z ed
er g
Ġp ure
Ġl osing
ĠI ran
Ġbe lly
ĠC am
ĠB ru
ĠB aby
Ġshe d
Ġshe et
ĠP ers
AT ION
ĠL ower
ist ry
Ġwor n
Ġv ain
Ġco ck
Ġref used
ĠIs rael
ĠX X
ĠPar liament
Ġbelong s
Ġcompl ain
Ġcollect ion
IF A
Rem ember
ĠLat in
B i
W atch
Ġ ign
Ġt iss
re ls
Ġf ate
Ġin n
Ġh ug
Ġme chan
ell ed
ĠP op
ĠL and
ĠL ist
Ġcon clud
Ġun it
Ġrem ains
ĠY orkshire
Ġche eks
did n
St ill
Ġsy mb
iver se
bl ows
Ġfore ign
Ġvill ages
Ġoper ation
ĠComm un
Ġrespons ibility
Ġrelig ion
Ell ie
ĠEmp ire
l am
s ur
Ġb en
Ġc ouch
ay ne
Ġn uclear
Ġj ournal
Ġcan non
ĠJ r
ĠG il
Ġro y
Ġsc he
Ġcomp ar
look s
Ġres cue
Ġcha mp
Ġacc ompl
Ġinst ance
Ġ198 7
Look s
Ġmark s
Ġban ana
Ġrefer red
Ġpir ate
F ather
_ _
b ang
s yl
y m
Ġ x
Ġb ord
an ed
Ġhe ight
st one
ĠS and
ĠS av
Ġme asure
ĠP orter
Ġal arm
Ġwhen ever
Ġbl owing
Ġstud ent
Ġpsy ch
ĠMic key
Ġneighbor hood
Ġfoll ows
b or
h u
r as
Ġb on
Ġp oo
Ġin tern
ĠS how
ĠP ac
Ġr at
ack er
ĠJ umbo
Ġbo ld
ĠĠĠĠ Ġ
ĠSt ud
Ġbel t
ĠAr thur
ex cuse
Ġpur cha
Ġ9 0
Al though
Ġadv ance
Ġlaw s
whis pering
Ġpa used
ondisse ment
ĠFa ith
Ġpic nic
T ony
d ri
f oot
h ot
Ġw inner
on i
it ure
Ġc ode
an n
ch oo
ĠH ome
Ġr ac
Ġsa le
Ġpl us
Ġsp ect
Ġpre c
hes s
pect ed
Ġ18 5
ĠAs ia
Ġsub st
Ġtre m
Ġeng ines
Ġspir its
Ġentr ance
Ġstol en
H ar
H urry
e v
f ind
m ove
t t
w estern
w yn
Ġc aut
Ġd iamond
Ġp itch
Ġin come
ĠS il
ro se
Ġli brary
ĠB ir
ĠF IFA
ĠR alph
Ġgot ten
Ġwork ers
int on
Ġunder neath
Ġfif th
Ġamong st
Ġvol ume
Ġrom antic
ĠCath olic
Ġug ly
t op
Ġc hips
Ġd u
Ġv ast
hi o
Ġcl ouds
iss a
ĠSt anton
Ġtra vell
Ġgrand father
com ing
urs day
Ġglass es
ĠNor thern
Ġfle et
Ġfol k
Ne xt
Ġeager ly
Ġimpro ve
" ).
Y ep
i ar
m ummy
Ġb ast
Ġc ig
ing le
Ġwe alth
ri f
her s
ĠC ON
um es
ĠD un
ĠW ed
ĠN ick
Ġsp in
ĠE mm
ĠK en
Ġfl ash
Ġch ums
Ġsw all
Ġ198 9
Ġ197 2
Ġstrong er
Ġsusp ic
ĠSen ate
Ġsucceed ed
ĠDiv ision
Ġinha bit
Ġgrate ful
' ...
g ro
g ate
i ation
w ha
Ġw itch
as a
Ġh ut
os ity
Ġcom r
Ġus eta
Ġpart ly
Ġpart ies
ict ure
let s
Ġste al
Ġtick et
Ġpig s
Ġhop ed
ida e
Ġpers u
Ġrelig ious
ĠCarol ina
Ġs ession
Ġc ounter
Ġo cean
ĠT or
ĠA RE
Ġnot es
Ġal tern
Ġcons ult
Ġ198 5
Ġpu pp
Ġjump ing
Every body
ĠAb out
oph ie
Ġinno cent
A C
A ha
am ps
ĠS ara
ĠA pp
ĠH art
ĠH ockey
Ġso ap
ĠF ord
ĠK y
let on
Ġfind s
Ġche ap
Ġbus h
OU N
Ġter min
Ġland ed
Ġ195 0
Ġthousand s
Ġda ily
ĠIN V
Ġeffect s
Ġprotect ion
Ġcond itions
Ġsuff er
WH AT
Ġterrit ory
scream s
S er
b its
c les
f ire
h ta
l ove
Ġt ub
Ġa ye
ou bles
at re
le ction
al m
al so
Ġno isy
ĠP o
Ġr ug
ĠF ox
ast e
Ġlet ting
Ġun f
Ġgu ide
Ġhel icop
Ġcount ies
Ġpass engers
Ġstuff ed
Ġpig gy
Ġspend ing
Ġadm it
Ġcomplet ed
Ġunus ual
2 7
b ird
m ag
u ction
y ard
ĠA ny
Ġan no
ĠP ilchard
ul ate
ag ing
Ġhand ed
Ġch ose
Ġdes erve
bur gh
Ġbas ically
Ġarr anged
Ġgir lfriend
p y
p hew
t oy
Â °
Ġm ole
ic hes
ac le
Ġst ool
ĠA yl
em ents
te acher
Ġlet s
Ġrec ent
Ġph r
Ġste ady
Ġgra b
Ġlate ly
col n
Ġca uses
Ġsal t
Ġmur m
Ġest im
Ġsell ing
Ġperm ission
Ġfal se
Ġsche me
I ES
c omm
f its
g ment
Ġm ood
Ġp owers
Ġl at
at i
ĠM ia
ur g
if orm
ĠR ome
ak i
Ġsp ark
Ġex ha
ose ly
Ġsha king
ĠY e
Ġapp ears
ĠGr oup
Ġexpl an
Ġserv ants
Ġmed ia
Ġlov ing
Ġreport s
Ġfort un
Ġsuff ering
Ġdread ful
ĠDep artment
Ġachie ve
ĠAyl mer
A nother
B ack
C I
g onna
Ġw ings
le mm
Ġas hamed
ĠH on
ĠH ind
Ġr ust
Ġsa us
Ġcon ver
ĠU p
ict ed
Ġele v
Ġ18 4
Ġdri ven
arr ass
Ġ197 9
Ġdisapp ear
Ġlim ited
Ġmum mie
Ġbutt ons
S am
g one
s omething
t ick
Ä ģ
er ous
Ġst ole
ĠB ed
ĠH ol
Ġab ility
ĠO UT
What ever
Ġaf fection
hed ral
ah ul
ru ct
Ġ18 9
enn es
ĠCl ub
Ġpot atoes
Ġill ness
Ġconne ction
AK E
van ia
RR R
ĠGold en
ĠBraz il
A H
L ast
n amed
p ick
w oof
y y
re k
Ġb ounc
Ġto e
an ks
Ġp ardon
Ġth rill
id ays
ĠA ng
ĠC OM
um per
Ġj oint
Ġr ice
em ic
ĠR ad
Ġle gend
Ġgr ay
Ġpr ide
Ġnight s
Ġwar ning
Ġ18 3
Ġfr ame
Ġfood s
Ġ198 2
Ġexpl os
Ġclean ing
Ġdisapp ointed
sn ame
JJ J
ĠBat ala
ĠDis ney
U p
p oor
r r
u an
on ge
om ed
Ġre ar
ĠC AN
Ġan al
ĠB as
han t
res p
ach us
Ġlea f
inn ed
az z
eth ro
Ġwat ers
Ġlo ft
ĠDan iel
Ġphys ical
Ġrevol ution
Ġwhist le
ĠScot land
ĠIr ish
Ġoblig ed
syl vania
F OR
V ID
d ale
Ġs ings
Ġf ederal
Ġy ummy
ic ulous
ĠM ars
ct s
ĠD u
hen s
Ġab and
ber ries
Ġun able
ĠV is
Ġsl ip
Ġra ining
ok es
ues day
Ġconf l
ĠWill ie
umb ling
Ġroll ed
Ġbas is
Ġpresident ial
lemm e
P oor
v y
y um
Ġt ank
is l
Ġc ows
Ġst arring
ĠA sh
ĠH annah
un ior
ra ine
ĠP ir
ĠP ooh
ĠL ilian
ist ics
ĠK enn
ord en
In ter
How ever
ĠMiss ouri
Ġland ing
Ġsal es
Ġprogram s
Ġcal cul
Ġfoc us
ĠHay den
2 8
B UT
D ER
L ife
T ry
d ra
Ġl ink
Ġl amp
Ġin cl
ĠA www
ĠB aker
ak a
ĠO ak
ag hetti
Ġam end
Ġfl ood
Ġnice ly
Ġsleep y
wh ines
cri pt
Some one
ĠMus ic
Ġoccup ied
ĠTurk ish
ĠPac ific
A my
L a
M any
O F
m es
Ġ ig
Ġw ip
all s
ĠH a
pe cial
int o
int s
Ġsc hed
Ġch op
Ġcont ains
ipp ing
Ġsystem s
Ġadm ir
Ġtrack s
Ġextreme ly
B ig
G G
L ittle
T urn
t ure
it o
et ts
Ġr ot
ho le
be cca
ĠV aud
Ġke en
Ġche w
Ġpoint ing
Ġfun ction
ĠAnd y
Ġdraw s
ĠCl ar
Ġstud ies
Ġprom pt
bb ing
Ġwood en
Ġbreat hing
Ġban ks
Ġadvent ures
Cap tain
Ge ography
O ut
] ...
Ġb ay
Ġh ills
Ġth irst
ab el
ĠL u
ĠN ic
Ġcom ed
ĠE v
ĠU nder
Ġgu ests
Ġsupp l
Ġreal ity
Ġattack s
erv ation
Ġarri val
ongrat ulations
H as
m outh
n ame
is er
or ious
en es
ay e
Ġre nt
am as
ĠS ol
ĠS har
ĠD ire
art s
ard o
ĠIn ter
TE D
Ġdra ft
Ġdoll ar
Ġcountry side
bs olutely
Ġdistrict s
ĠTr ump
Ġbull et
Ġnet work
ĠLaw rence
Ġemb arrass
ĠRem i
Ġdesper ate
engu in
Ġcongress ional
c ray
Ġp ond
Ġp ipe
Ġg reet
om i
ĠI m
Ġn est
ĠA ri
ĠA ileen
Ġse ized
um ph
Ġso ck
ort ed
Ġun ion
Ġatt ended
Ġset s
Ġsub s
Ġref ers
Ġtre asure
Ġvis ited
ĠJack son
Ġevent ually
Any thing
ĠWH AT
uf act
ĠLab our
Ġresour ces
ĠPenn sylvania
Ġinhabit ants
O pen
o is
Ġs in
ha mm
Ġf its
ĠI II
Ġher s
Ġpl ot
ĠJ an
ig ator
Ġman ufact
Ġun com
Ġsec ure
Ġact ed
Ġapp les
ect ive
Ġboy friend
Ġcha se
Ġcomm itted
Ġdist ant
Ġbed s
Ġid iot
Ġste el
does n
ĠMc Glory
Ġking dom
Ġdet ails
Ġwhis per
Ġrestaur ant
Ġpregn ant
M art
c ur
d i
w en
Ġs am
er a
Ġm aid
Ġf o
Ġp ressed
ĠA D
Ġan ger
Ġnot ed
un ched
Ġsa uce
ĠJ ake
qu es
Ġex ped
ĠAl ice
cle ver
sh h
ib ly
Ġposs ession
Ġbroad cast
Ġtemper ature
ĠCamp bell
Ġpatter n
sque als
Ġfreed om
ĠRepresent atives
e z
u j
on ies
Ġg rey
ĠM obile
ĠM osely
Ġse ated
ĠC ho
ĠL ife
qu ick
ĠN an
Ġcon ference
ĠO ff
Ġbr ace
ĠSt ar
Ġfl ung
Ġfun eral
AM E
Ġarri ve
ID S
Ġgold en
Ġmam my
Ġrub ber
Ġhous ing
Ġviol ence
Ġtech nology
Ġpil ot
ĠConf eder
Ġroy al
F our
L IN
s ong
Ġw oke
or ange
Ġg ri
Ġfor k
ĠS oo
ĠS ure
ĠD ON
ĠL I
ive red
Ġsp ots
ĠO ut
Ġgr at
ĠU P
cl ose
Ġchar ges
Ġsound ed
Ġrep ro
ĠOn ly
Ġlo ad
Ġmis erable
ĠNav y
t akes
Ġw ishes
Ġb ore
Ġc akes
im p
Ġas h
ĠD ra
ĠJ eff
ag le
Ġint ake
Ġro de
Ġun known
Ġdis play
Ġfin ancial
Ġpres ents
Ġbus hes
Ġcons cious
arr ot
Ġconf ir
Ġless on
Ġcolor ing
Ġ196 9
Ġshar k
Ġteacher s
Ġshout ing
vol ution
Ġprin ci
Ġremain ing
Car l
bre ak
gl as
ĠWil son
Ġtun nel
M AR
P r
b ot
c est
f s
s ometimes
Ġ eth
Ġb ul
Ġg le
Ġha y
ĠS A
ĠS OME
ĠC ooper
ra h
Ġsh y
ol k
ĠL i
Ġex ceed
ag ue
Ġmust n
Ġmight y
Ġtra ve
Ġret ire
Ġauthor ities
Ġbud dy
Ġinterrupt ed
icy cle
Ġrout e
ĠPre fecture
achus etts
C ol
e ven
n ut
Ġt in
Ġw icked
Ġs igh
Ġf etch
or i
Ġit em
ad u
Ġk il
ie ve
ĠW all
Ġde er
Ġjust ice
Ġint ellig
pe ople
ru b
Ġgu id
Ġim pl
Ġbu g
Ġent hus
Ġmind s
Ġtre mb
ĠPhil ipp
omp an
Ġaff airs
Ġnea rest
Ġdeb ate
Ġveh icle
5 00
J esus
p ill
w ick
ar ian
ac ity
am m
ĠA li
Ġse asons
ĠH or
Ġne phew
Ġr acing
ĠW OR
ĠL E
Ġcon cl
ĠO ur
ĠO hio
Ġbr and
Ġdra g
less ly
ĠGr ace
Ġ197 6
Ġappro ached
Ġclim ate
Ġice cream
Ġconsider able
Ġlim it
Ġbene fit
Ġstro ke
cod ile
a way
Ġp it
ac ious
Ġre b
Ġre v
Ġfor b
ir ts
il ight
um in
ĠL es
ne ed
Ġsc ored
âĻ «
Ġatt ached
Ġsupp ly
ump y
ok i
Ġ198 1
Ġroad s
Ġthreat ened
ĠJer sey
ĠBurt on
D ear
F in
Ġw ard
Ġc ries
ĠT an
ĠG ord
Ġcon vin
ĠO ver
ven ge
Ġback wards
pl ess
Ġgl anced
Ġbeg un
Ġcons ist
ĠEd die
Ġ198 4
Ġcur tain
Ġpoor ly
bl ack
Ġappro priate
Ġdress ing
ĠBro ad
vocal ization
Ġble w
DE B
semb ly
2 9
I AN
M ark
l ast
w ide
re fer
ing ing
Ġbe ans
ut ies
st ill
ĠM all
ĠP apa
ĠL ater
Ġint ense
Ġdis ag
Ġapp eal
ĠAn na
Ġcut s
Ġconf ess
Ġoffic ially
ĠOn ce
Ġsol id
Ġcompet ed
Ġtor n
Ġloud ly
Ġconne cted
Ġshel ter
A pp
C omm
G O
d es
Ġc ott
an as
Ġli f
ink le
ĠL ola
ĠR om
ĠR us
ak in
Ġbl ows
te xt
iz z
Ġhapp iness
cle ars
Ġexc han
Ġpur s
ĠSo ciety
Ġem ot
Ã¡ n
Ġstar red
Ġmur dered
ĠĠĠĠĠĠ Ġ
Ch ris
Ġmunicip al
Ġnecess arily
Ġgen us
Ġdelight ful
Ġinj ured
G R
M mm
n ge
Ġb id
as ters
ĠA S
Ġmy th
Ġr ude
ind er
ĠSt and
Ġun iform
Ġte aching
Ġear ned
Ġ202 3
ertain ly
uss y
Ġimport ance
Ġsupport ed
ĠBert ha
Ġenvironment al
Bi ography
ĠWed nesday
C LA
a ah
u its
Ġt ale
Ġd ull
Ġl t
Ġre ward
ĠT ommy
st ra
ea ut
il ton
Ġmy stery
ĠW as
ĠG i
The ir
Ġpro spect
Ġtr oubles
ĠU h
Ġsw ept
Ġpass age
sh ine
Ġring ing
ean while
Ġcost s
ĠPat rick
Ġlevel s
Ġprin cip
het ic
Ġcondu ct
Ġmult ip
Ġtiss ue
c rying
g iving
Ġw ars
ĠF ield
ĠG e
Ġpe cul
Ġgu itar
Ġimp ression
Ġbear ing
Ġduck s
cri ption
Ex actly
ĠSch olarship
Sha ll
Ġig no
F ive
P H
g al
s ar
t il
w orks
Ġt ack
he im
Ġw reck
ha ll
er k
Ġb att
nd a
Ġto x
Ġh ipp
Ġno ble
Ġcar pet
Ġpre m
ret t
Ġchar t
ĠCar ter
Ġrid iculous
Ġactiv ities
Ġviol ent
soft ly
Ġchampions hip
ĠLin coln
ĠMass achusetts
Ġmyster ious
D amn
E m
J im
P erson
b reat
k ind
p re
Ġt empt
Ġto ols
Ġdo ctors
ĠS ally
ĠO b
Ġpe ekaboo
Ġfe ver
Ġsc ary
Ġpr oof
get s
Ġsw ear
ĠDe v
Ġ8 0
Ġ196 4
Ġexpect ing
uk i
Ġdi ag
ĠIre land
Ġsna kes
Ġwha le
Ġsole mn
shar p
h or
Ġl ou
ĠS P
ĠA ccording
ĠC a
ĠB ear
Ġj ew
Ġde y
ĠJ enny
ĠR ose
Ġwant ing
Ġpro s
Ġun happy
Ġrem ove
Ġbu ying
Ġsit es
ins on
Ġri bb
Ġsub m
âĢĺ _
ĠBar b
Ġbag s
some body
Ã³ n
Ġincred ible
ĠLie utenant
Ġphil os
A ren
R at
Ġs ons
Ġc age
ar o
om er
Ġh its
Ġst ack
ĠF amily
ĠL iber
ĠN O
Ġle ather
ah hah
Ġwr ites
Ġchild hood
Ġcomp ound
mm m
19 6
Ġext ended
Ġbelong ed
Ġloc ation
Ġcapt ure
Ġune x
Ġarg ument
War ren
eaut iful
3 5
G ra
g irl
s ound
Ġs out
Ġc ord
Ġd ies
Ġp itched
as ion
Ġre form
ĠA nother
and ra
ill ed
ĠD ie
ol i
ol and
ĠR ich
ick et
Ġfe ather
ud den
Ġpo le
Ġun its
Ġpr ince
ew is
Ġcol ored
ĠGr an
Ġreturn ing
Ġhundred s
Ġ196 8
olog ist
Ġappro aching
Ġkiss ing
Ġclos es
Ġtem por
Ġport ion
ĠIsland s
Ġdiscuss ion
ALL Y
Ġassist ant
Alex ander
Ġcitiz ens
B ar
D AN
M R
u als
w hee
Ġw ing
Ġd ough
im ately
ĠA le
il k
ab a
Ġcon qu
Ġus eless
pt on
AN K
Ġcomp ared
Ġcomp lex
Ġcomm ander
Ġpen ny
ĠDan ny
sn iffs
ĠStan ley
ĠCast le
Ġsignific ant
P re
T ON
b ir
b elt
u able
in ity
Ġb ac
Ġc ateg
Ġl ic
ĠS han
ĠH ond
un ter
ĠP lease
Ġsh ining
IN D
ĠE ach
ass es
Ġcomp osed
Ġmon keys
br idge
Ġum bre
Ġreturn s
ĠIs a
Ġplan et
Ġ197 5
Ġserv ant
fort able
Ġcreat ures
Ġpot ato
Ġda wn
Ġ193 0
Ġvisit ors
Ġprison ers
Ġmer ged
keep er
Ġprim ary
ĠSus an
Ġbub bles
Ġadop ted
4 5
A F
W elcome
s an
w ers
Ġa wards
Ġa rose
Ġs ought
Ġf estival
om in
ut t
ad ies
ri ger
Ġst ations
ĠS ub
Ġk not
Ġgo als
ĠC arr
ĠB ell
un te
ĠW ales
ĠG abriella
ĠL ang
ĠR oss
ear ch
Ġpe an
pe ekaboo
Ġdis g
Ġhel pless
Ġres ident
Ġstop ping
Ġdr ank
Ġri vers
Ġtouch ing
Ġshop s
Ġclim bed
Ġtreat ment
ĠSec ond
Un cle
Ġsatisf action
ĠChampions hips
Ġdeg rees
ennes see
refer ring
g abr
n am
o ch
w ind
Ġb ishop
Ġc ups
Ġm ac
Ġo pt
Ġd ed
or por
im um
am i
Ġst out
Ġst amp
ĠS C
ĠM en
ĠC ont
Ġan cest
ig hed
ĠL ar
ĠL www
Ġcl ip
Ġch uck
Ġhor ror
Ġconf used
Ġpain ted
Ġprov in
Ġpolic ies
Ġisland s
Ġgrow th
Ġtid y
Ġarch ite
Ġphr ase
A bsolutely
E h
K T
M on
c ount
g og
p art
Ġm ental
Ġre view
Ġre ference
il st
op hy
ul ed
Ġget tin
ĠJ ac
ĠN ok
the less
ĠK night
Ġcha mber
Ġatt itude
ĠAl an
don ald
Ġchar ged
ĠNew s
Ġconst ant
Ġill ust
Ġexper iment
ĠTe le
S aint
U P
j amin
m ind
t hanks
u ct
on ation
Ġg al
Ġre fe
Ġst iff
ĠT ennessee
ĠP ot
el ing
AT E
ĠN ever
ap ers
Ġv ig
iss ed
ys is
Ġgu ards
Ġhead ed
ĠAl though
OU R
eb ra
Ġinst it
Ġcra p
Ġ197 7
ĠJoe y
ĠPol and
Ġadm itted
Pro bably
Ġaud ience
Ġproceed ed
Ġaffect ed
ĠFrancis co
ĠFil m
Ġsen ior
ĠNok ia
, ...
P hil
j ump
Ġa ft
Ġd ining
Ġf ake
Ġp ist
Ġn ick
Ġn onsense
ĠT em
ĠT ok
ĠC reeks
ĠN HL
Ġgood bye
Ġsl a
inn ers
Ġpol ite
Ġanim ated
Ġdri ft
Ġfact s
Ġfriends hip
Ġconf ident
Ġthank ful
Ġ197 4
Ġins pect
ĠTr ans
Ġcommon ly
Ġbas ic
IC E
Ġphot ograph
ĠKore an
Ġmut tered
Ġvot es
Ġscri pt
Ġconclud ed
D es
G eor
N or
P eter
S H
Ġhe e
Ġn it
Ġst ares
st ar
ĠJ on
ĠF le
Ġint ention
ne xt
Ġact ions
man n
Ġ3 6
Ġob tained
Ġwind s
Ġkid na
Ġimp ress
Ġdisc over
Ġstick ing
Ġshort ly
Ġlead s
Ġgra pe
Ġdef ence
oub led
ĠAust ria
Ġpack ed
Ġdescri be
Ġpossib ility
Ġutter ance
ĠEli ot
ĠAtl antic
Ġbast ard
Ġhelicop ter
nge un
B Y
F C
U nder
b ud
g reat
en ess
Ġg on
Ġl over
Ġn a
ea v
ĠA C
ook ie
Ġqu ack
Ġsha pes
ars on
ĠBr id
Ġele ment
Ġass ured
Ġfact ory
Ã© e
Ġste am
Ġ197 3
Ġmist aken
Ġhol idays
Ġhealth y
Che ck
Ġhistor ical
Ġdemand ed
ĠJew ish
Ġmere ly
Ġliqu id
Ġcig aret
Ġunex pected
C o
P at
e ys
m ay
in em
on om
Ġm ast
Ġd ug
am an
ĠS ob
ĠB all
Ġv en
Ġex act
Ġnow here
Ġ( ,
be fore
av a
Ġkind ness
Ġnear by
uri ous
Ġorgan ized
Ġsepar ated
Ġphot o
Ġfurn iture
Ġconfir med
A ccording
P S
R ic
d ear
Ġa er
Ġm ister
as ped
Ġe re
ke e
ĠC le
ĠW ould
ĠN a
ĠE st
ĠHe nd
ud ding
pl aces
Ġpo em
HE N
Ġsur gery
br ing
Ġtri angle
Ġadd ressed
Ġconf usion
Ġreac hing
Ġclass es
Ġpot ty
Sh it
Ġkick ed
Ġcheer ful
ĠDou glas
Char lie
Ġresol ution
Ġintrodu ce
ĠRel iance
Ġath let
Ġuncom fortable
A CK
B re
D O
M Y
M at
S ec
T ime
m ate
Ġt ropical
ou rage
Ġs add
Ġd umb
hat i
Ġre ign
Ġst able
Ġst ated
ĠM oon
ĠA y
um ption
ĠD i
ĠW inter
ink ing
nt il
ĠE astern
ip ina
Ġlast ed
Ġ3 5
ik ander
Ġmid night
Ġce real
Ġabs ence
ĠPol ish
Ġpack age
Ġeconom y
hem at
Pl ay
Ġrail way
ĠCO VID
NN N
Ġinstr ument
Ġwarri ors
gb ark
Ġumbre lla
9 9
E nd
H y
J ean
M anchester
W ant
p icture
w ah
Ġm erry
et tle
ver ing
ent ine
ĠT all
ĠT ime
ĠA L
Ġj e
ĠP oint
Ġr ider
ne ver
Ġbr ick
Ġpre viously
Ġwr it
ens es
aught ers
gr and
Ġalong side
ĠPr in
Ġla unched
rem ony
Ġmagnet ic
every body
ĠMer rim
ĠVictor ia
ĠStep hen
ĠUk raine
ĠServ ice
I nt
ha w
er ick
Ġd irt
es cue
ar ant
ac co
ĠT uesday
Ġgo ds
ĠP L
ĠD og
ĠW acker
ĠF our
ĠN ancy
Ġer r
Ġte en
Ġstr ict
Ġred uced
Ġhum ans
Ġ195 7
Ġhur ting
Ġstat us
ĠAunt ie
Ġsex ual
Ġextra ord
Ġbasket ball
Ġgrad ually
Ġcommer cial
4 8
B el
B oth
E ng
X X
Ġw olf
Ġs ank
Ġst ared
ĠS ur
Ġgo sh
Ġwh ilst
ck er
ĠG all
end er
ĠK ang
har t
Ġun ivers
Ġra ge
Ġdist ingu
Ġmid st
Ġce remony
Ġconc er
Ġbur den
whis per
Ġexcept ion
ĠPol ice
Ġpun ishment
Ġinvestig ation
pha bet
iffe rent
rin ini
? ]
H ang
Ġ :
it ors
an im
Ġp ace
Ġl os
Ġbe ard
Ġwe bs
if ts
ĠJ oy
ĠL isa
ĠR eally
the m
Ġro ast
Ġbl ast
Ġen qu
Ġpre y
gg er
ult ural
Ġtra ined
Ġacc ompan
Ġcap able
wh ose
Ġdec ent
arr ondissement
ĠMay or
Ġev ol
TH ING
Ġann ounce
Ġclos ing
dd ed
ĠTe ch
Ġsafe ly
Ġkick ing
Ġneighb our
Ġnatur ally
Ġfool ish
Ġeconom ic
Ġenc oura
Ġrespond ed
Ġbatter y
Ġlem on
Ġwra pped
A unt
B R
J ul
Ã ¦
Ġw ret
Ġc uddle
Ġm al
or ial
Ġg est
Ġg iraffe
Ġha l
ke l
ĠT ell
ur bed
ĠB oth
un ks
ĠP ope
ge on
Ġpl ates
Ġby eb
ĠN as
Ġv oy
Ġv irt
ag a
Ġfe e
ater pill
ci pl
oc a
Ġend eav
Ġob st
Ġlist ed
Ġsum m
Ġoper a
Ġlab el
Ġvol unte
Ġfeed ing
Ġmerc y
Ġscream ing
Ġsurround ed
Ġdepend s
hamm ad
1 00
B oy
B ring
I X
S O
T LE
b ear
g row
or ne
Ġh ired
Ġth ief
am ation
Ġgo at
âĢ ķ
ĠC ivil
ĠJ UST
ĠJ ethro
ĠL it
ĠE N
end ous
ite i
ĠK as
ĠSt r
man Rat
Ġask s
app le
Ġexp ressed
Ġ196 6
Ġclot hing
Ġopp osed
ĠLe on
Fr ank
Ġorgan is
Ġtest ing
Ġlab or
Ġprep are
Ġsevent een
Ġepis odes
New manRat
Ġexist ence
Ed na
Ġcy cl
Ġtradition al
quar ters
Inter views
Ġpecul iar
NewmanRat ner
; "
J ane
c ing
i i
m ade
u ing
Ġt ables
Ġa x
Ġb ars
ot ted
ĠS ometimes
ĠM erc
ĠA venue
ur d
ĠB ank
ell ing
un a
ĠD uke
ĠL A
ĠR h
ag ger
Ġqu ant
We re
av ed
Ġsm oking
RO M
Ġcount ing
ump ty
ĠAr m
enc ies
Ġ197 1
ĠBen jamin
Ġed itor
At l
Ġart icle
ĠPhil ip
Ġtick ets
Ġdev ice
Ġhy dro
pro bably
Ġbill ion
ĠGra eme
Ġnap kin
ĠUrs ula
Mag gie
4 7
H appy
m osp
p ool
v ior
Ġp ed
Ġbe ating
im ents
Ġme nd
ĠC hat
ĠH ung
ĠP ra
ĠD ever
el ine
Ġcl ay
ĠK ir
ĠK ong
Ġthr ust
Ġun like
ĠV ill
ĠV alley
Ġnum erous
Ġdisc overy
Ġref lect
ĠJap azy
ĠFor ce
Ġsun shine
Ġ194 0
Ġquar ters
ĠNot hing
mit age
ĠMid dle
Ġproduct s
ocr acy
Ġdivor ced
udden ly
Ġsla very
H oney
L ING
R el
S uch
V I
b in
y up
it ter
et ime
st ay
ĠM ir
ĠC ur
ĠB our
ain ted
el a
Ġsp aghetti
ĠO l
hing s
Ġag es
Ġtr ace
ĠSt ill
Ġch in
row s
Ġdra gged
Ġob tain
gr unts
Ġwar n
ĠAr gent
Ġimp act
Ġcat ches
ĠHow ard
for ce
Ġins isted
Ġlo ads
Ġvar iety
Ġcow boy
Ġattempt s
Ġactiv ist
Ġanx iety
Ġmem ories
EC T
ĠChild sname
tw enty
Ġveget ables
C r
H on
J ames
U E
g imme
t aking
v ant
in et
Ġb ond
Ġc reek
ay a
Ġbe gged
Ġe cho
ĠS ong
Ġse as
op y
ĠD ave
ĠW ater
Ġde ce
ĠL ast
Ġcom ments
Ġcon cept
Ġpe ep
les h
Ġpart ners
Ġpr ime
Ġch im
Ġcomm it
ever al
ug s
Ġob vious
Ġmar ch
ĠAr mitage
Ġunderstand ing
Ġspeak er
Ġ198 3
Ġ197 8
Ġins urance
Ġsn eak
Ġkiss es
Ġz ero
Ġcross ing
hold s
Ġru ined
Ġstore s
Ġgar bage
ĠLuc as
Ġbang ing
Ġoccasion ally
Ġarrow s
Ġcheek y
ĠAB OUT
Ġamend ment
Ġcott age
Ġbyeb ye
r aspberry
Ġt ennis
er am
Ġf are
Ġf eared
Ġp ad
Ġh om
ĠS on
ĠC as
ĠH oll
Ġj olly
ĠG ot
ĠL au
ĠL ewis
ĠN ob
ĠO s
Ġany how
ort heast
Ġch um
Ġmother s
port s
ĠBr idge
Ġdr um
ĠAnd rew
Ġass ume
Ġgra bs
Ġdef ense
Ġ195 6
Ġce ased
Ġstar ing
Ġcatch ing
Ġest ate
Ġdeep ly
Ġdefe at
Ġestab lish
ij i
elp hia
Ġcraw l
Ġmig ration
Care er
Ġsymb ol
resp ond
Ġexped ition
Ġprincip al
J o
T V
j u
r ont
Ġm useum
Ġo ven
Ġd aughters
CH AR
Ġl ux
Ġl oyal
Ġhe ap
Ġno dded
Ġn ations
ir s
ĠM useum
ĠG un
ĠG arth
Ġcom in
ĠK i
ĠU K
ons cious
Ġ3 3
Ġdist urb
ĠAr ch
Ġind ign
Ġass ault
Ġsqu ad
ze ch
Ġvis ible
Ġstrong ly
AS E
Ġrepe at
oos a
Ġfaith ful
Ġstret ched
Ġexecut ive
Ġapolog ize
Ġcomr ades
ĠHend erson
C hild
M olly
R o
R un
c up
m ight
m aster
t es
or al
en o
id ers
ad elphia
ri ly
ĠS no
ĠH ea
Ġhad ta
ĠF ederal
ĠR olan
ard ens
ĠO t
Ġtr ay
Ġen orm
iz ations
Ġsc ale
Ġlong est
Ġsha red
Ġrec all
oun ces
Ġcle ared
Ġaw ait
Ġ195 8
Ġcheck ing
Ġsol ution
Ġrefer ring
Ġtou ches
ĠCor por
Ġwa ist
Ġcrim inal
Ġexplan ation
Ġconfl ict
Ġbrace let
ĠDever ing
8 0
E V
p at
s illy
Ġt une
he ther
in ate
er man
Ġo d
Ġf ires
Ġy er
Ġl aughter
Ġin se
Ġth under
ver se
ant a
Ġdon key
ol ine
ĠF ame
ĠN ich
Ġch rist
bab bling
Ġfr ank
ted dy
Ġdrink s
Ġprov ision
Ġfig ured
Ġpolit ics
Ġart ists
ĠCol in
Ġvar i
Ġenjoy ing
ĠMe itei
Ġproject s
wr ite
ĠSer geant
Ġcro codile
spect or
Ġaward ed
Ġadminist r
ĠRuth ven
ĠPost man
Ġcot ton
Ġrecomm end
i per
o ard
t ape
Ġb ored
Ġc ush
Ġto ps
at tered
ad al
Ġre nd
ĠS k
ĠB BC
ĠB orden
ĠL ine
Ġthem e
AR T
Ġfe ature
ĠU pper
ĠIn tern
Ġcha llen
Ġdri ll
ĠTh ursday
Ġdel i
Ġdraw er
Ġexp and
Ġ7 0
read ing
Ġ196 7
ĠCol umb
Ġoper ations
Ġdirect ions
Ġpretend ing
Ġlab our
Ġincre asing
cher s
ĠMus lim
Ġneg ative
Ġinstru ctions
Ġconvin ced
7 0
B essie
b us
g un
p an
Ġs well
on ce
Ġf aced
Ġp eak
Ġp ier
Ġl ob
Ġn ails
Ġu lt
st an
ct ic
ĠF er
ĠG re
est ic
Ġsp ider
Ġcon text
Ġcl aimed
ree ze
Ġtr amp
ict ures
Ġres ign
Ġser ving
anc er
Ġans wers
Ġimp ressed
Ġswe at
Ġland s
UR E
Ġgener ous
Ġmain tain
Ġworth y
Ġlie utenant
Ġsandw iches
Ġassoci ated
Ġthorough ly
Ġchamp ion
Ġmultip le
Ġextraord inary
O k
W ELL
_ ;
l ady
y ummy
Ġs ung
Ġp oured
Ġg rief
ow l
Ġyour selves
Ġr ushing
ul se
Ġgood s
uck s
ile y
ĠV er
can ora
ĠBr ook
ĠBr other
Ġret reat
Ġstay s
Ġent ering
Ġins ist
Ġeng age
Ġ195 2
Ġconst antly
ÃŃ a
Ġelect ron
ĠON E
ari us
Ġsettle ments
ĠSer ies
Ġbuck s
imit ating
ĠTy ler
Ġsquee ze
Ġfant astic
ĠDire ctor
t Ã©
v ia
in ea
Ġo bey
Ġf asc
OT H
OT HER
Ġg azed
Ġh id
ut ter
Ġn atives
ink ie
ĠG ET
ĠL ane
be e
per haps
wn s
Ġad vert
Ġbu zz
Ġown ers
Ġgl oves
ĠBr ooke
Do ctor
ĠAl aska
Ġ18 0
St and
Ġdec isions
Ġsn ack
Ġ194 3
Ġterri bly
Ġdefe ated
Ġver b
ustom ed
ĠEm peror
ĠHarr ison
ĠFort escue
ĠDou bs
Ġaddition al
Ġcad ets
Ġign or
Ġben ch
Atl ant
S ix
b ish
b ble
h ors
j ac
k nock
l ar
l isten
Ġt ide
he ll
or ay
Ġg abr
se x
ĠS em
ĠA ss
ĠB us
Ġj elly
th ony
Ġshe lf
ĠP ubl
ol ar
ĠR on
ĠK ar
uck ing
Ġwhere ver
Ġrec overed
vent ion
Ġpop s
Ġdep ression
Ġinterest s
Ġstick y
Ġbreat he
Ġill eg
Ġabs olute
Ġclos et
Ġbuck et
Ġcabin et
Br other
Ġpoet ry
ĠKat ie
Ġtransfer red
Ġgodd ess
Ġsuffic ient
: --
B ro
H al
P ardon
c os
e ating
Ġ Â
Ġc ooper
Ġd uties
es ome
Ġp y
Ġg re
Ġh oly
ĠT a
ĠC zech
Ġan ch
Ġan gel
ĠB attle
ĠW es
Ġv ision
Ġv alley
ov ie
ang ar
Ġdis aster
ail ing
me al
Ġcap acity
Ġ196 2
Ġconsider ation
Ġdescri ption
ĠCo ch
Ġpray er
ĠCarol ine
ĠRand olph
Ġscient ific
ĠMos cow
Ġfrequ ently
Ġgor ge
B S
H elen
K at
O ld
W OM
h n
Ġd ared
or ney
Ġg ates
ĠT ake
ĠT ib
Ġk ings
if ying
Ġcan oe
ĠD eb
IN E
ous ed
Ġro ar
te enth
Ġpo ck
ĠIn stitute
Ġsit u
ret ty
put ting
St ep
wh oo
Ġmusic ian
ĠHar vey
Ġ196 1
Ġbur nt
ĠComm ission
Ġsecret ary
Ġcover ing
Ġeduc ated
Ġsle e
Ġbell s
ĠChan nel
Ġscient ists
Ġbare ly
Ġfier ce
Ġash ore
ĠTok yo
Ric hard
A www
i y
r ad
in ated
Ġd ude
Ġp arrot
Ġhe els
us ie
ad ad
Ġre put
ĠS O
ĠM em
Ġas pect
ĠP ipina
ood y
Ġint end
do ll
Ġpo ll
Ġsc rap
Ġdis pos
Ġdoor way
Ġperson ally
ĠCha p
Ġcow ard
Ġreact ion
Ġvictim s
Ġvessel s
ĠSwed en
ĠGord on
ĠSob rinini
! âĢĻ
. )
A V
H ome
I P
c oh
f unny
Ġ /
Ġs ke
Ġd ing
ar med
al most
ĠT imes
ĠM aybe
ĠH an
ab ama
ĠJ osh
ĠF el
ĠF orm
ĠG ulf
ĠL y
ĠE XP
ĠE aster
ĠE lo
Ġle aning
ho oray
MA D
Ġmay or
Ġchan ces
Ġtra p
ĠMar ia
ĠAl so
ĠAl ger
Ġrel ie
Ġ5 00
Ġhor iz
Ġreason able
ĠCon stit
Ġ194 2
che ck
Ġpot ential
Ġoper ating
Ġann ual
Ġcry st
ĠMe g
Ġsuggest ion
Ġhop es
Ġbull ets
Ġdesp air
Ġbisc uits
ĠSqu are
Ġcontroll ed
ĠSax ony
cray on
b oth
c ontin
h h
h op
j i
y ed
Ġp ussy
Ġl y
oo ja
al o
ac ement
Ġj am
ab or
ig a
Ġsu icide
ick y
Ġbo om
Ġgr im
Ġday light
Ġgu arant
og ue
Ġacc used
Ġsur re
Ġreg ions
Ġsk ill
Ġhat ed
ĠIs lam
ene z
ĠRe volution
ĠCon ference
Ġang le
Ġval uable
Ġneighb ors
Ġident ified
Ġstret ch
olit an
Ġagre ement
Ġtrem endous
Person al
Ġdisg ust
Ġprovin ces
3 6
B LE
I CH
m um
n at
t an
is k
Ġc ri
ar se
Ġin iti
ir y
Ġst adium
ĠS ix
ĠM icro
ĠĠ ĠĊ
ĠW alk
ul u
ĠN ord
ĠU s
ĠU t
ĠV ic
Ġper man
Ġapp ointment
Ġball oons
Ġele ments
Ġinst inct
OR E
Ġhor rid
Ġstick ers
Ġref riger
Ġcra b
fl ower
over l
Ġprotect ed
ĠAg ain
ett ie
Ġcrit ical
Ġacqu aint
Rem i
Ġprepar ing
quest ion
Ġbord ers
Ġthirst y
ĠIsa ac
Ġpock ets
F F
T en
T ING
Y S
h ur
i ently
m ont
p ired
Ã §
Ġs ack
Ġc oun
ĠI V
Ġh oo
ĠA z
ill er
ĠB Y
now n
ĠH aut
op ard
pp ose
ĠD ream
Ġsh ift
ink s
ol t
Ġpl ung
IN K
ap h
Ġfl our
Ġtalk in
Ġres c
Ġbel oved
Ġend ing
Ġ3 2
Ġacc ur
de y
Ġinte gr
Ġdel icate
ĠChrist ians
Ġ194 5
Ġce iling
mon key
ĠMan ip
Ġsal ary
Ġut tered
ĠSha gbark
yn asty
ĠEm ily
ĠBer lin
Ġfund s
Ġfirm ly
Ġsurv ive
nee zes
Ġcontr ast
Ind eed
Ġhesit ated
Ġjournal ist
Atlant ique
R ob
c ourse
w oo
it able
Ġm obile
or ous
Ġin ner
im m
ĠA ra
ĠC T
ĠC ind
ĠB RO
ĠH ong
ĠD own
ĠD ora
ĠW el
ist or
Ġwho a
Ġfe ast
Ġapp ly
Ġtry in
Ġgl orious
Ġred uce
Ġdel ivered
Ġdeal ing
Ġlay ing
Ġdest ruction
Ġmis chief
Ġimag ined
AY S
Ġrepresent ative
Ġmat hemat
ĠEx press
Ġpursu it
ĠPers ian
Ġcomed ian
ĠElo ise
C or
N G
T oo
c ool
l ace
p arent
r ul
r ants
w ash
z burg
Ġt u
Ġt ires
Ġw ander
er ves
Ġb ust
Ġm orn
Ġy ield
Ġp oop
Ġl ung
ay lor
ĠT urn
ĠH oly
if ford
Ġj oking
ĠP RO
ĠD aw
res h
ber y
ĠK o
be ep
ord an
Ġfl ed
Ġim per
Ġbu ff
Ġreg ional
Ġmar bles
Ġ4 5
Ġtri but
OR Y
RE AM
fl ies
Ġrepl ace
Ġ195 9
ĠGu adal
Ġshar ply
With out
Ġmist ress
Ġwag ons
Ġchap ter
Ġbeha vior
Ġarrange ments
Ġcad et
Ġsympat hy
ĠKenn edy
Ġguid ance
Ġaccompan ied
ĠNas canora
F L
K en
t own
t oday
Ġs ou
Ġb um
Ġc ert
Ġf lesh
an z
Ġg rie
ar io
Ġin it
le g
Ġre in
her lands
ĠB os
ĠB esides
Ġso il
ĠP a
ĠD od
ĠW ild
ry n
ĠF C
ĠR oll
ĠO cean
ag on
ear ly
iss ors
ov a
ĠSt ation
Ġfl ow
ĠV iet
ens ity
Ġcont ained
Ġbot t
Ġkill er
Ġrel ation
ĠNew man
Ġinst antly
Ġinv ite
ĠBe ach
Ġgra ph
Ġtom ato
AP P
Ġpar liament
Ġcor respond
Ġview s
Ġshout s
Will iam
Ġmass ive
agu ar
ĠLI KE
7 5
C ertainly
F O
M ic
N E
S w
m ates
p ink
Ġb oring
Ġc hip
Ġm ars
Ġd ess
Ġl an
Ġh itting
ot ic
Ġn asty
ĠH IM
ĠP ower
Ġsh ove
art ed
ul s
ĠG reg
em en
ĠN ative
âĢĿ !
Ġbu nd
ĠAl abama
Ġbelie f
ING S
Ġperson ality
Ġmus cles
ĠEd ric
Ġbreak s
Ġste aling
Ġpur se
Ġpain ful
ĠRe becca
UN C
Ġmur de
Ġequ ally
Ġinform ed
ĠFrank lin
IC K
Ġsna p
Ġwid ow
Bet ter
Ġbisc uit
Ġproced ure
Ġcarr ots
ĠOff ice
" ;
R achel
S how
t ra
Ġb ib
Ġm ic
or is
as hes
Ġbe w
Ġat mosp
Ġab oard
ĠG ive
Ġal phabet
Ġal coh
ak s
Ġ[ _
ĠHe ad
ĠK ent
Ġam us
Ġun ple
Ġdis cipl
Ġstart led
up on
TE N
bab ble
Ġdist ress
Ġrel ative
ĠAn nie
Ġmove ments
ĠCl inton
Ġste ad
RE E
Ġ195 5
Ġ194 7
Ġcand le
Ġhast ily
Ġregard ing
Does n
Ġrabb its
Ġdesp ite
Ġprint ed
ĠPet ers
Ġfavour ite
ĠSim on
Ġmagn ific
pur ple
Ġkil omet
B ern
D an
I VE
J ess
d am
i pt
s chool
x ide
Ã ¢
Ä ĩ
Ġg ap
Ġe ffic
ĠT op
ĠT IM
ĠS EE
ĠM AN
Ġr um
ĠF eder
qu et
ĠE nd
Ġcon ven
Ġpro fit
AR Y
cc er
ĠV enez
HE RE
ult ure
ĠAnd re
Ġwar rant
Ġpass es
Ġsix th
ER E
Ġdro pping
Ġcoll ea
Ġcat tle
Ġexpl ore
ĠSo cial
Ġgreen belt
ĠPhil adelphia
Ġsoft ware
Ġterri f
pret ty
ĠCo ast
._ ]
Ġinj ury
Ġsurround ing
Grand ma
Ġdetect ive
ĠRec ords
Ġsav age
Ġimit ates
Ġaband oned
Ġconcl usion
) }
D own
S arah
p o
p ack
u er
Ġw ins
Ġc ub
Ġc ors
Ġc herry
Ġo ption
Ġf uel
Ġp anc
Ġp udding
Ġha mb
oo g
ri fic
ĠT re
ĠS ar
ĠM ouse
Ġse al
ĠC ad
th s
ĠP ictures
Ġr uff
ight s
na h
Ġtr oubled
cl ap
Ġsha kes
Ġcol umn
Ġent ers
ĠTHE RE
ĠGr ant
Ġdeath s
omm od
ĠHar wood
Ġfore head
ĠCon st
ĠCol or
Ġshar ing
Ġstru ct
Some body
ĠFred erick
ĠKe ith
Ġimm ig
Ġvan ished
Ġimpro ved
Ġbless ed
Ġpra ise
ĠFre ud
Ġdiss ol
Ġexperien ced
Ġinn it
Ġmurm ured
ĠNich ol
O S
f if
h ous
r un
on ent
Ġc aterpill
Ġd ign
Ġre ject
Ġst ress
ĠM od
ill ing
ĠB ye
ĠH ard
ĠH IS
ell s
Ġj ar
rom ise
pp ers
Ġr att
ĠJ e
ĠJ ung
ĠL uke
Ġsee king
Ġv oc
we e
ĠK ate
ud dy
Ġbr on
Ġbr ide
ĠY et
ĠY outh
can al
Ġhead quarters
Ġrec on
Ġrec over
Ġsw ung
ĠAl b
sh it
OR AT
Ġinter fe
Ġref use
Ġstud ying
Ġgra pes
Ġla unch
Ġband s
ĠAust rian
Ġpract ically
ĠAb bey
ighb or
Ġdi aper
igg le
Ġemploy ed
Ġide al
Ġwrest ler
ĠHER E
ĠMu hammad
Mad am
ĠSpr ing
Ġgrant ed
ĠBang l
Ġvoy age
ĠCoch ran
3 9
4 4
g ers
l ife
l oud
{ \
Ġt um
it age
Ġd ried
ĠT W
ĠT ai
ĠA ut
ĠH ills
Ġso da
ag raph
Ġover all
Ġun iverse
Ġstr ateg
Ġmon arch
ĠJohn ny
Ġsk ull
Ġadd ing
Ġaw fully
ik a
ĠPr ot
erv ative
Ġbab a
Fr anche
Ġexper t
Ġcomb ined
point ing
Ġcrowd ed
Ġstrugg ling
Ġdeb t
Ġcustom er
ĠRand all
ker chief
ĠNet herlands
Ġbee f
Com tÃ©
Ġearnest ly
ĠRad io
3 7
B esides
G RO
J ason
k ward
m usic
p ig
t ie
w on
z ona
Ġg um
Ġin ches
st eps
ĠM aced
ĠC all
Ġj us
ĠP un
Ġall ows
Ġal oud
ĠSt op
gg s
Ġra ising
ug o
Ġacc ommod
Ġfr act
unt ed
wh ite
Ġdep os
Ġhat s
ĠChrist opher
Ġpat ients
ĠGu ard
Ġfil es
ades h
De ath
ĠKe vin
Bl ack
ĠEll en
ĠGra ham
cy cle
Ġpor ch
KK K
gog ne
ĠBour gogne
ĠGuadal canal
ĠVenez uel
A G
H ad
M usic
N one
T alk
c row
d one
d ire
h im
m ilk
p ent
p iece
w oman
Ġm ath
Ġd ating
or us
Ġh ollow
al ie
ĠC os
ter y
ĠB C
ge e
Ġab und
qu ack
ĠR IGHT
Ġwor m
Ġag ric
ure au
ĠK han
Ġbr u
ia h
Ġneed n
Ġsc attered
Ġhead ing
Ġgl oom
uff y
Ġreg ist
Ġwar ned
Ġchar ity
bo ys
Ġsil k
Ġstick er
Ġaw hile
Ġaw kward
Ġgener ation
Ġ195 4
Ġappro ved
itc ase
Ġ194 6
erc y
ĠMc Donald
phan ts
Ġpuzz led
Ġrul ed
Ġuncle ar
ĠQue ens
Ġsens ible
ĠReg ion
Ġmor al
TT T
Ġreput ation
. =
E F
h ums
n umber
Ġthe atre
re fe
Ġc ared
Ġf itted
Ġto ol
ed ge
Ġp atch
ut ional
ent ions
ĠS ay
ĠS hi
Ġ" "
ĠD ak
ĠW ork
ound ed
ag ers
Ġint r
au nd
AR S
iv ia
Ġsc ra
ĠV in
Ġhelp ful
Ġcomm ission
Ġdist ract
to ys
OU S
Ġyoung est
Ġlight er
Ġlight ning
Ġhigh chair
ĠTh ose
Ġdel iber
Ġexpl ains
Ġbusiness man
Ġoffic ials
Ġpri est
Ġ195 1
Ġ193 9
Ġdisapp ointment
Ġtruck s
ĠDan es
Ġalb ums
Ġcomb at
Ġwide ly
LA UGH
Ġliter ally
Ġadminist ration
Ġproced ures
Ġsubst ant
Ġdeli very
Ġrelie ved
" ),
C A
p ass
s ounds
w art
Ġw aving
Ġc ure
Ġwas her
Ġn ail
Ġst air
ĠM anchester
ĠH istory
ĠP rem
ol is
You ng
ig en
ĠK ath
act ory
ang led
ob al
Ġpass enger
Ġlight ed
Ġguess ed
ĠCl ara
Ġste amer
Al so
Ġpri zes
Ġtest s
Ġmount ed
Ġsuper ior
Ġiss ued
Ġrub bish
Ġrough ly
Ġident ify
Ġcuri osity
Ġindust rial
Ġattract ive
Ġant icip
Ġdom estic
Ġentertain ment
Ġgradu ated
ĠEmm a
Ġsuspic ion
3 8
6 6
A w
M ENT
t ree
t ub
Ġ ing
Ġg ym
ar ia
as ha
Ġth umb
all el
ch icken
Ġas hes
ur ger
un n
ĠP ur
ĠW ars
ĠF ive
os a
ĠN ations
ĠE le
Ġer ror
Ġtr ash
irl ing
Ġacc ompany
Ġchar ming
Ġind ic
Ġinter pret
Ġ17 9
some one
TH A
Ġleg isl
Ġformer ly
Ġcop ies
Ġvisit or
ffic er
Ġremark able
ĠDr usie
Ġdev oted
Ġgas ped
Ġcomb ination
ĠSam uel
IGH S
Ġswing ing
Ġdoc uments
Ġliter ature
rec order
Ġcandid ate
Ġexchan ge
Ġdiag no
Ġlou der
ĠÂ £
Ġunple asant
D EN
J eff
M ary
V D
b uh
c ake
e enth
g ra
h oo
Ġt ha
Ġno on
ĠC orn
ĠC ensus
ĠB ab
un es
ĠW innie
ĠJ os
ĠR hod
ĠHe e
Ġpe e
do ing
Ġun ique
Ġdis gr
Ġad just
ĠCh in
Ġmin es
Ġgl ory
Ġacc ustomed
Ġsur f
ĠAr chie
St ation
ĠAs sembly
Ġsk ills
Ġ8 5
Ġground s
Ġmill ions
US E
Ġ194 8
Ġcommun ities
Ġterri fic
Ġattempt ed
Ġconne ct
Ġspl ash
VER Y
Tr ans
ĠEn ter
Ġvac ation
Ġtal ent
bro ken
Ġresist ance
ĠBed rul
ĠMall ory
Ġmunicipal ities
Mat thew
ĠMicro soft
A b
A lf
B o
B aby
P ost
S im
g or
m iss
p her
it als
Ġl ick
as ks
Ġhe d
ent on
ĠT igger
Ġgo lf
Ġse eds
ĠC omp
ĠC elia
ĠH as
ĠH ugh
if ted
op l
el f
Ġout er
ĠG ree
os l
ous ins
ĠSt u
Ġfl ies
Ġsc issors
Ġim pr
ect ion
ph ones
Ġcol on
any thing
Ġimp at
ues e
ĠZ oe
unk nown
rop olitan
OW N
wr iting
Ġcrack er
str ong
Ġdig ging
Qu ick
Ã¼ r
Ġplain ly
Ġmater ials
Ġrevol ver
Ġpossess ed
Ġexha usted
Mart in
donald s
bud our
ĠMerrim an
Ġbott les
ĠBedrul budour
M eanwhile
g ian
k ers
r ical
t ch
Ġt ire
Ġt urb
he astern
Ġc j
Ġm ax
Ġp enguin
Ġg inger
at meal
ĠI ce
Ġon line
Ġbe have
ut ions
ad i
Ġn arr
ĠM m
âĢ ²
ĠC L
ĠB u
ĠB ax
ĠB ox
th ou
ĠD ID
Ġr ates
ĠW alt
Ġal t
ĠR ahul
ĠO R
Ġim age
Ġact s
ĠIn c
Ġcount ed
az a
Ġsim pl
Th ough
atur al
Ġrece iving
Ġart icles
Ġca res
Ġpat ience
Ġmeant ime
Ġcop s
Ġpract ical
Ġru in
Ġcre pt
Ġengine er
Ġslight est
Ġgall eys
Ġsmell s
ĠMa isy
Ġinvest ment
ĠBo ys
Ġow l
Ġutter ly
Ġindivid uals
Ġliber al
ĠMission ary
Ġtechn ical
ĠGree ce
. [
C DS
M ike
b ad
re te
on ing
ing o
Ġf iring
or ters
ld om
Ġre he
Ġn app
ĠS i
Ġgo ver
ĠC ub
if ully
ĠP y
ĠD ear
ck now
ul ting
Ġab road
Ġv ice
Ġwho ever
Ġint onation
Ġback s
Ġer a
Ġun s
ob y
ĠV e
ĠV iz
ens ions
Ġcont ents
ush room
Good bye
IT TLE
Ġfil ms
Ġknock ing
Ġhop eless
Ġremark s
Ġhast e
Ġtit les
Ġur ban
Ġhonest ly
Ġappl ied
vo ice
Ġgrave ly
Ġclaim s
Ġfold ed
Ġinstr uments
ĠSel wyn
ĠBon net
Ġtyp ical
Ġunfortun ate
Ġchick ens
dri ver
rif ice
Ġmanufact ure
Ġtremb ling
Ġenorm ous
C ut
M M
R obert
b uild
c us
i ac
i ate
l k
y ah
Ġt ag
Ġw oo
Ġl un
Ġwe ary
Ġre venge
Ġk ite
ĠM O
Ġli p
ĠC ab
Ġas semb
ĠB ry
ĠH uman
Ġshe ets
ĠD al
ab s
art ing
Ġsp y
ĠHe alth
Ġcl ients
ĠK aren
Ġsha de
Ġapp et
Ġcr icket
ins ula
Ġsing les
Ġmar ched
ĠEd ith
ĠEng ine
ony m
ik i
Ġmess ages
UN D
Ġ194 4
Ġdress es
hold ing
Ġabs or
Ġdam aged
Ġbeat en
Ġimmedi ate
Ġunc onscious
ĠSy d
Ġcelebr ate
Ġstraw berry
bet ter
Ġmagn ets
ĠSwed ish
Ġslipp ers
ĠPortug uese
ĠBuild er
Ġexplos ion
ĠColor ado
C han
O w
R ed
T y
j an
m oves
v als
Ġc ust
Ġm oo
ar ms
Ġin ch
ĠM R
ĠM www
ĠB and
ĠB av
ĠB ush
ie v
ĠW ait
ul ars
ĠL im
ĠN ettie
ate gy
Ġwill n
Ġag ency
Ġar ts
ĠSt ory
Ġfl ows
Ġcha sing
Ġel bow
Ġstr ategy
vel ope
sh ot
ĠTHE Y
Ġrest rict
ged y
Ġsqu eak
Ġtre as
Ġem otion
AS T
ĠCon ne
Ġcreat ing
Ġdet ail
Ġfill ing
Ġban anas
Ġtast es
ĠAre a
Ġpour ing
ĠPri ze
Ġdea f
Ġprinci ple
Ġsadd le
ĠRhod es
A GE
L ater
M ia
O b
P ar
R es
f ix
g age
p ow
Ġt ube
he ro
Ġb a
or gan
as m
id d
ad er
Ġre pt
ĠS ikander
ct op
th y
ĠD arius
Ġr ural
Ġsa iling
ĠG al
Ġwor ms
Ġwor ship
Ġoff ering
pe c
pe e
cl ass
IS H
Ġ3 4
Ġ4 8
Ġmeet ings
Ġtele gram
Ġ9 9
Ġdef in
Ġband age
Ġfarm ers
AK ING
Ġenc ourage
Ġble eding
ĠJul iet
Ġexist ing
Ġassist ance
Ġshell s
ĠLO OK
Ġcris is
intend o
Ġaltern ative
Ġfortun ate
ĠPhilipp ines
ĠBroad way
ĠBarb ara
orpor ated
ĠPra gue
J uly
M us
U rs
f ood
o i
p ie
Ġb er
Ġb ounces
is hi
Ġc oo
Ġd ates
Ġto mb
Ġp ear
Ġp enn
Ġg b
Ġha w
oo ter
ĠT aylor
ĠS now
Ġme als
Ġse ldom
ĠB ol
ĠH AD
th m
ĠG ame
em et
Ġtw ist
Ġro d
Ġlight ly
Ġent ry
Ġrel atives
Ġass ess
Ġste ep
Ġquestion ed
Ġev ac
Ġmess y
Ġclear ing
ĠBl ake
ĠOF F
Ġcor por
Ġeffect ive
Ġprop ose
Ġprofess ion
Ġaccount s
rel ative
Ġ192 8
Ġmach ines
Ġsuit able
ĠLouis iana
Ġhistor ic
Ġforest s
ĠCla vering
Ġveh icles
Ġreve aled
Ġpropos al
Ġnic er
ĠDun can
Ġsout heast
ĠHea ven
angar oo
Ġgorge ous
Ġdess ert
C ongratulations
P retty
S ame
c ap
f are
u i
Ġ vel
Ġs ulf
Ġd ial
Ġg it
Ġin fection
at ched
at ically
gh urt
ir cle
ĠT RI
ĠS E
ĠS ophie
ro it
ĠH appy
ĠP le
ĠP art
ab led
ĠW ick
ĠW rest
ĠF riend
Ġsu itcase
ĠN OW
ak ers
ĠO re
act ive
ci ences
Ġfl av
iz zy
Ġcr ashed
tain ment
Ġgl ue
ont o
de f
Ġreg ister
Ġsmall est
Ġcons cience
Ġswe ep
EN D
Ġ196 3
Ġ196 5
Ġclean ed
ĠCon way
Ġz ebra
Ġdem ocracy
Ġru ins
Ġbelong ing
Ġgen ius
Ġbene fits
Ġdiscuss ed
Ġnur sing
Ġdinosaur s
Ġbeha lf
ĠMount ain
Â¶ Â¶
ĠWal ter
Ġdemon str
Ġhipp o
ĠHond ura
Ġatmosp here
Ġamus ement
A nt
f olk
Ä į
Ġw ool
Ġw rap
Ġb ills
Ġb icycle
ĠI nt
ĠI llust
ve t
Ġbe am
Ġbe ings
Ġn av
ĠS ean
ĠM oo
ĠM amie
Ġse lect
ch in
ĠC ould
if er
Ġne got
ĠP res
Ġr aspberry
na p
Ġor phan
ĠN ame
ĠN ap
Ġv ague
Ġex isted
Ġle cture
ase ball
Ġam used
Ġcar rier
Ġpo ems
Ġunder ground
ĠY am
ĠEd uc
Ġind ul
Ġhat h
ĠAt t
Ġrock et
Ġjo ining
gas p
Ġ194 1
Ġstri king
Ġdifficult ies
Ġcre ep
Ġcompl icated
ien na
Ġpriv ile
Ġsens itive
Ġsail or
Ġturt les
ĠJean nine
Ġsuspect ed
ĠNet work
Ġspo il
cur rent
ĠManip ur
ĠDak ota
5 9
G eneral
b ies
j e
l ater
s pl
Ġs ust
Ġo ars
Ġg a
Ġin fect
Ġe ase
ĠC are
ĠC ru
ĠC ape
Ġan k
ell er
ĠW ILL
ĠJ ob
ĠJ ordan
ĠF anny
ĠL am
ĠR ub
ĠN intendo
ĠE the
ress ing
get ting
Ġch lor
Ġpol ar
Ġdist urbed
Ġswe ater
ĠCl ark
Ġstra in
Ġgra v
Ġfootball er
ĠLe g
Ġca using
Ġ194 9
uk ie
Ġsol ve
Un less
tr uck
cast le
Ġtax es
sil ence
Ġpan el
ĠGO ING
Ġperm itted
ĠScott ish
Tom orrow
ĠHaw kins
Ġinvent ed
ĠDen ver
ĠPortug al
ĠAri zona
Geor ge
ĠPrin cess
CHAR LES
Ġanch or
ĠCT X
Ġalcoh ol
B OB
M ust
M arch
P resident
T hings
Y ES
b read
j ab
l on
n uts
s hi
Ġw o
Ġw ounds
Ġs han
Ġb ounce
Ġc inem
Ġd anced
Ġp ha
Ġl azy
ar n
Ġbe es
ow a
.. "
Ġst ake
ĠT eddy
ĠS orry
ĠM ask
ĠB ea
un ction
ĠP ear
ĠP oor
ĠL oren
od ed
ide o
Ġpro b
Ġcl in
Ġoff ers
Ġbr id
ps on
ass ador
Ġlea ped
anc ies
ug ar
ĠMar ion
ale m
Ġdri ves
uss ia
Ġmet ers
Ġext end
Ġ7 5
For get
Ġpar agraph
Ġconc ert
Ġsecret s
Ġsad ly
Ġdev il
Ġ192 9
ĠMad am
ĠHam ilton
Ġcraw ling
Ġresol ved
Ġrequire ments
ĠJess ica
Ġadult s
Ġincl ined
Ġsched ule
Gra eme
Ġpean ut
onom ous
ĠIntern et
ĠTIM E
N ally
p ea
r its
t ri
Ġt uck
re pe
Ġs an
Ġs ed
Ġc ousins
Ġd ashed
Ġf er
Ġp unch
ar ling
Ġu na
ĠT oday
Ġso lo
ĠP ier
ĠL ITTLE
Ġal ter
ĠN eram
Ġv ic
Ġpro port
Ġcl ick
ĠU r
Ġhand kerchief
Ġ3 7
Ġ3 00
Ġrest ing
ER Y
Ġchair man
Ġrock ing
Ġexam ples
Ġfree ly
Ġappro x
Ġcup board
ĠCol omb
Ġcommun ication
Ġ193 3
Ġneck lace
Ġut most
Ġcre ation
Ġlift s
ĠSec urity
Ġjud gment
every thing
Tw enty
Tw ilight
Ġbatter ies
Ġsac rifice
Ġaston ishment
Ġtermin al
Ġlat est
Ġconver ted
Ġelev ator
ĠDie go
ĠUt ah
) ;
D is
F red
F ire
P h
S on
d ig
f ight
m ust
n els
Ġ ;
ou g
re ll
Ġs unk
nd ed
Ġm hm
Ġm ales
an es
an ese
ar c
Ġwe b
am en
Ġst or
ĠT en
ĠA mb
Ġwh ip
Ġso d
ul ance
ol ate
Ġ( ),
AR E
Ġen velope
Ġsc enes
Ġcr imes
air y
Ġele phants
Ġfr idge
sh irt
ĠAr ts
Ġworld wide
pr on
Ġind icate
Ġass urance
Ġvis iting
ĠAN Y
Ġcirc les
Ġstat ue
Ġrain bow
Ġengine ering
Ġself ish
IR ST
ĠChe ro
ĠSer b
Ġpan ic
Ġprefer red
Ġsaving s
Again st
Ġpup ils
ĠHolly wood
Ġwebs ite
ORAT IA
rits ar
B I
F ollow
G irl
S ea
s ays
t it
w l
Ġa pt
Ġp he
Ġp ine
ar in
Ġno d
ac les
Ġn aked
Ġn ortheast
ri ve
Ġst y
Ġst ab
Ġst ub
ĠS up
ĠA ggie
ant e
ĠW WE
oh oh
art en
ck ed
Ġde ed
Ġpl ains
ĠL ead
ĠR ab
Ġman ners
ne ighbor
end y
ĠUn ivers
Ġac ademy
ec il
ĠDe f
Ġass ure
ĠCha mp
Ġconf irm
Ġexam ination
Ġlo aded
Ġanswer ing
Ġ193 1
Ġdirect ors
Ġstri p
OP LE
rican e
ĠPlay Station
ĠEgypt ian
Ġcam el
Ġwarri or
ĠHad ley
Ġelder ly
Ġdwell ings
Ġroot s
Ġprec ise
Ġsuppl ies
Ġdisag re
ĠLang ridge
Ġpist ol
Ġilleg al
emet ery
B illy
H arry
S ounds
c hen
w he
y gen
Ġ Å
in er
Ġf oe
Ġf urious
or f
en ra
Ġe jac
am mar
ent e
ĠS HE
ĠA st
Ġse ed
ĠH ank
Ġj umper
Ġsh ield
Ġde put
ĠF AT
ĠL augh
Ġal ike
itt s
ĠE X
Ġtw ins
Ġag ony
add ie
Ġgr asp
Ġam az
ire n
Ġfl ashed
cl aps
Ġdis gu
Ġ3 8
br ooke
amp a
ĠAs hati
pr ise
Ġtri umph
Ġinv itation
Ġref uge
Ġrep air
bb it
ĠWill is
ĠTH INK
Ġobject ion
TH IS
Ġver se
ĠTur ks
Ġsearch ing
Ġmerc hant
Ġimm ense
Ġindepend ence
Ġcondu ctor
cel ona
Ġconce aled
Ġdrown ed
Ġunfortun ately
Bill board
__ __
ĠHart ley
Ġbounc y
Ġsam ple
Ġintellig ence
ĠRus sell
, .
3 1
B O
H S
J une
S uddenly
W ork
b asket
b orough
m i
u v
Ġt ales
Ġt roll
in ating
on ic
Ġf ulf
Ġg ardens
Ġl end
ow nt
ac o
Ġst roll
and o
ĠH ospital
ĠP E
ĠD am
Ġr attle
ĠW ERE
ĠJ as
Ġsu p
Ġsp oons
ĠO VER
Ġpro f
Ġfl ame
Ġpo ly
urt is
ĠInd ones
Ġ4 00
ĠDe ath
Al ways
Ġcook ed
Ġsum mit
Ġpos itions
Ġtem ple
Ġdoubt less
ĠAm ritsar
Ġemp has
Ġcompet e
Ġtor ture
Ġcommand ed
Ġanx iously
Ġcomput ers
Ġoppos ition
Ġfem ales
Ġident ity
Ġreact ing
heart ed
Ġfeat ured
Ġcelebr ated
Ġshad ows
ĠRy an
fortun ately
Ġdebut ed
Ġtur key
ias m
Ġsquir rel
Ġpupp et
ĠPir ate
Ġadmir ation
Ġretire ment
Hal f
ĠViet nam
Ġmurde rer
ĠSyd ney
5 6
A y
H ard
L ou
S IGHS
Y E
a ire
b u
d ah
k itty
m ir
r ich
s or
v ation
Ġt aps
Ġa cknow
ed e
Ġp uff
ĠI F
Ġhe ars
oo ped
im al
Ġre new
Ġdo l
ĠS om
ĠS uch
ĠS aul
ĠS ky
ĠA G
ĠC ob
ĠC ousin
ĠH ur
Ġj unior
ĠP ayne
Ġr ack
ĠW y
Ġde e
ĠG ro
ig ers
Ġ19 20
ĠK ay
Ġgr ade
uck le
Ġfl ames
Ġcar bon
Ġthr one
Ġpr ices
cl own
ĠV en
ĠV ice
Ġper for
Ġhome work
Ġcont empt
uc hess
Ġstr angers
bo om
Ġrest ra
Ġpop corn
ĠAn cient
ĠGr anny
Ġexc ess
Ġplan es
Ġexp osed
Ġpain s
Ġdead ly
Ġed ition
IT Y
Ġsum mon
Ġprot ests
che ese
Ġdream ed
THE RE
Ġmist akes
amb led
ĠWest enra
Ġtrust ed
Ġappear ances
Ġvol can
Ġcollect ed
ĠAg ent
Re ady
Ġearli est
Ġmotor cycle
Ġox ide
Ġmult i
ĠPet e
ĠChild ren
Ġfra ud
Ġyo ghurt
Ġcarr ot
ĠHon or
ĠTele vision
Ġannounce ment
Ġchrist mas
Ġplung ed
3 4
5 8
G old
P op
P ol
W on
b ased
m ill
s uch
w ich
Ġt ons
Ġw ww
Ġd ot
Ġf ears
Ġin her
le ment
ut ive
Ġe e
Ġre named
ĠS at
ĠS her
ro d
ĠH orn
ĠP ie
ĠW in
Ġout ta
ĠL ind
em ploy
res ents
It s
Ġtr icks
Ġsomet ime
Ġafter ward
Ġrem ote
âĻª âĻª
ĠYou ngeun
Ġacc ent
Ġ4 9
ĠAn thony
ĠGer hart
aj amas
Ġdisc har
Ġspeak ers
Ġref lected
Ã¡ l
Ġappro val
Ġla wn
ĠSw iss
ĠAm anda
ĠCent re
Ġsubject s
Ġur ged
ĠCat hedral
gi ven
ught y
Ġdelay ed
ĠDet ective
Ġaccompl ished
Ġsaus age
breat hes
Ġchallen ge
Ġlan tern
Ġterrif ied
refe rent
B ra
D OU
R oy
U ntil
W est
c all
r ating
Ġt ones
ou st
Ġw is
Ġd ick
Ġf ab
Ġf ict
Ġf og
Ġf ries
Ġf iction
Ġto ler
Ġg aze
Ġin k
us ive
id dle
ut ed
im s
st ep
st ream
Ġk itten
ĠA ld
ĠB ird
ĠB udd
if ies
Ġr oo
ĠG ina
ĠL ion
ĠL arry
ĠN i
Ġsp ray
ort ing
ob a
ĠV ienna
Ġapp arent
Ġbu ggy
Ġlea p
ult ane
Ġatt orney
Ġelse where
Ġfr ust
sh ut
app ro
Ġcut ie
ĠBe cket
got ta
As k
Ġmess enger
Ġ195 3
Ġcor rupt
Ġ193 4
Ġ193 8
Ġsupport ing
cient ists
Ġav o
Ġoccas ions
Ġappl ication
Ġplant ed
ĠCat al
ĠHy un
UCK LES
Ġgodd amn
Ġcas ual
Ġsem i
Ġpup il
Ġconsequ ence
intend ent
Ġexperien ces
Ġswift ly
Ġestim ated
tick le
ĠCOM P
Ġexceed ingly
Ġbatt les
Ġjew els
Ġrefriger ator
ĠFeder ation
Ġinterfe re
D et
F e
K ING
T AIN
c u
k u
m ovie
v ard
Ã ª
he h
Ġs way
Ġb ows
Ġm ushroom
Ġd ub
Ġd ip
hat tan
Ġl oop
Ġre ci
se cut
and al
ĠC ro
Ġcan n
ĠP ant
Ġsh rie
Ġsa iled
Ġab rupt
ĠF ound
ig ley
ĠR oland
Ġsp it
Ġover come
Ġqu ot
ass y
do lly
Ġco b
ru p
Ġper il
Ġhel met
oot s
ĠCh ick
Ġel im
Ġtra pped
Ġfin ishing
Ġrun way
Ġdiffe rences
sh op
Ġmar ble
Ġcons ists
ok ed
OR T
ĠCar roll
Ġvis its
Ġins ult
Ġfuck in
ĠBar num
velop ment
Ġconst ru
Ġ193 7
ĠGrand ad
Ġcand les
chan ts
Ġspell ing
Ġbomb s
ĠWH O
ĠAnt on
Ġtrail er
Ġcontr ary
Ġelectric ity
Mc Nally
Ġcompos er
love ly
Ġsaus ages
Ġanal ysis
Ġenthus iasm
Ġrehe ars
B A
I RE
P apa
a o
j ing
s ho
s leep
s pecially
v ous
Ġ ï¿½ï¿½ï¿½
Ġthe rap
re ne
Ġb ail
Ġc ant
Ġc ong
Ġm uff
Ġo k
Ġo l
Ġf ans
Ġf ert
et ic
im b
Ġre bell
ĠC www
ill o
um i
ĠW ANT
ĠJ en
ĠF ROM
ĠG OT
ĠL ive
ĠE ver
irl ines
Ġwr ist
Ġrec ess
Ġdr am
Ġac ad
ĠNew ton
St ar
Ġcons pir
ma id
Ġ4 7
uss ian
EN CE
Ġsurpr ising
Ġlo an
ID E
ĠGrand pa
Ġaut umn
Ġdiscuss ing
Qu igley
Ġrail road
Ã¤ s
ĠFore st
Ġbetray ed
Ġgrat itude
Ġtack le
Ġribb on
Kat ie
hous es
Quigley McNally
C lear
C atherine
E ight
E ach
R ep
c ups
f ine
i u
l ines
m ission
p apers
r ons
t able
u is
ha b
ha ir
Ġb ade
Ġm ock
ed ia
Ġp ets
Ġl ions
us ter
id o
Ġbe ep
Ġe agle
ĠM ull
ĠC herry
ill es
ce ler
ook ed
Ġj ury
ĠP il
ĠP ooja
ĠD uck
ĠW OULD
ĠF uk
ĠG ang
est ed
ĠR u
ĠE p
ĠK ap
Ġle aned
pe ction
ĠV ery
Ġser geant
Ġgl imp
br own
ball s
Ġmar vell
Ġind icated
ĠTh us
Ġhope fully
Ġcur ly
Ġcat hedral
Ġspe cially
Ġprom in
Ġprom oted
Ġfight s
ĠAd vent
Ġins pired
ĠMc C
Ġ193 2
rop hy
Ġboard ing
Wh ite
ĠSe ven
Ġemp ire
Ġ192 7
ĠChic asa
Ġox ygen
Ġadop t
Ġshr ine
Ġcaut iously
Ġwip ed
Ġlif etime
Ġathlet es
Ġadministr ative
pher d
ĠIllust rated
Ġglimp se
? âĢĻ
C ON
H ORATIA
P ilchard
T er
c al
c alled
j ud
l an
r ics
s neezes
y an
z ie
Ġ âĢĶ
in als
Ġb ri
Ġd ummy
Ġg ifts
as hi
id ency
Ġwe igh
ĠS yl
ĠM au
ĠA IR
Ġan ge
Ġsh ots
Ġsp ons
Ġcomp re
Ġper ce
Ġres erve
Ġri g
Ġri val
Ġinv asion
Ġdar ing
Ġfact ors
io let
Ġsy m
Th irty
head ed
Ġmed ium
Ġlarge ly
ĠBar celona
Ġmod est
Ġbab e
Ġda isy
ĠJack ie
Ġknock s
off s
Ġdecl are
gu ess
Ġtast y
ĠJust ice
ĠAnge l
Ġsusp icious
imit ates
Ġbother ing
Ġbless ing
Ġflight s
Ġneg ro
Ġ187 0
Ġdistribut ion
Ġassoci ation
Ġsquee zes
Ġdepart ure
Ġess ay
ĠMur ray
ĠBraz ilian
ĠBet ty
Ġliber ty
ĠDet roit
Ġpurcha se
Ġprompt ly
Ġgri p
ĠBrid get
Ġcigaret te
Ġunivers ities
Ġfare well
Ġmagnific ent
ĠVenezuel a
Ġgover ness
ĠMoo re
3 2
4 2
K ing
S an
S ophie
V II
c ular
h uman
p in
s aid
Å Ĥ
ha ra
Ġb os
Ġb ass
Ġm art
es ter
Ġg oose
Ġl ane
ar ched
us a
id y
Ġbe ads
ac hi
Ġdo d
Ġst im
ĠS cience
Ġk it
Ġk ettle
ĠM ister
ĠA R
ĠC OULD
ĠH itch
Ġso ccer
Ġr aces
ĠF at
Ġal ert
ĠN az
ĠK ings
Ġpre cip
Ġsc rat
Ġbu gs
ye h
Ġdes ired
ĠBr and
de re
Ġsur vey
Ġbed time
OU GH
Ġdifferent ly
Ġent it
Ġmiss us
Ġcent uries
Ġprov iding
Ġmed als
Ġlay er
sc ape
Ex cept
Ġoper ated
Ġwild ly
ograp her
IR L
tr unk
rain ian
minist ration
ĠJul ie
Bob by
Ġattract ed
Ġwrest ling
Ã¨ re
Ġprepar ations
Ġflo ating
MP I
Ġgather ing
Ġast ron
Ġtravell ing
Ġtrave ling
Ġinspect or
Ġwret ched
ĠCorpor ation
EV A
ctic ut
Ġbew ild
Ġcollea gues
Ġdisgr ace
Ġassemb led
4 9
D eb
L o
M S
R ec
W N
d uh
g ins
Ġw ives
Ġc m
Ġd iet
Ġp and
Ġp iss
Ġl est
ic it
id en
Ġbe an
ĠT al
ĠT am
ĠM ISS
ĠA P
ĠB al
ĠB ud
ĠB ACK
ĠD VD
ab ove
ig o
ĠR aj
ĠN orm
Ġv oted
Ġqu e
ho ibi
hm an
AN S
ĠV o
Ġbot hered
Ġrel uct
Ġri p
Ġheart ily
Ġgrand pa
ivers ary
ĠSp ot
Ġfro zen
iver pool
Ġbar rel
Ġfast ened
Ġnorth western
Ġce re
Ġfix ing
Ġcontro vers
Ġdest iny
Ġorgan izations
ĠComm ander
Wh oo
Ġconsider ing
ĠWh it
Ġsle igh
Ġstreng then
Pe ggy
Tr ust
Ġinj uries
Ġcustom ers
Ġtap es
ĠEr in
Ġir rit
ĠJew s
dr ink
Ġautom obile
Ġvent ure
Ġdivor ce
Ġaston ished
bour ne
Ġdescend ed
bir ds
Ġgest ure
Ġperman ent
Ġimpat ient
F ind
H all
K im
L ong
M al
d ate
g uh
h orse
r ors
u z
y mn
z ard
Ġc her
Ġm rs
Ġd ancer
Ġf ug
Ġl od
Ġre ception
ĠA v
ĠC ort
ĠB alt
ĠB ishop
ie ls
Ġcan al
qu is
ĠR ud
Ġlook in
Ġcon vey
fe el
od o
Ġus er
ag i
Ġtw isted
Ġover board
Ġhand ies
Ġevery day
Ġsec ured
Ġdis k
ĠIn spector
Ġhead ache
Ġsl op
und e
Ġdes e
ee k
ple te
ok Ã©
ĠCl ass
Ġcoll ar
Ġoffic es
ĠSp ider
Ġmod e
Ġ193 6
Ġshar ks
Ġabs ent
Ġdeep er
Ġsouth west
Ġfat al
Ġcell s
Ma isy
Ġlog s
ĠMel issa
Ġconsequ ences
ĠThanks giving
Ġpros per
Ġcaterpill ar
aund ry
ĠWrest ling
' '
4 6
5 5
B ad
D ON
Y o
b ath
l ic
o cc
w i
w all
w ari
Ã £
Ġm ild
Ġm ask
Ġd iver
Ġto ads
Ġp anda
ĠI ng
ut tering
Ġn erve
Ġdo se
ĠT ha
ĠT ower
ĠS pecial
ĠM as
ĠC ray
ĠB og
ĠH u
op les
ĠP erry
ĠD uchess
Ġsh ud
ĠJ ose
ĠF if
ĠL yn
ĠN ag
Ġar gue
Ġam id
Ġen sure
Ġdes cent
Ġsit com
mp oo
me ans
Ġtri gger
Ġsqu eal
20 20
Ġem br
Ġdef ined
Ġclass ic
Ġoper ate
ĠIndian a
Ġtest ed
Ġlim its
Ġdeter min
Ġden ied
Bl ue
Ġdig ger
ĠMont real
ĠMinn ie
Ġyell ed
Ġqual ified
Ġfrequ ent
Joe y
ĠTer rit
ĠHind u
ĠClar ice
ĠEv ans
Ġeth nic
Ġemot ions
ĠJoy ce
Ġchim ney
ĠColumb ia
Ġacquaint ance
ĠConne cticut
B est
E ver
L ady
M el
N ord
N ING
c ont
i ary
p erson
p aste
r ane
t ries
Ġb arr
Ġb reeze
Ġm os
Ġf ury
Ġto b
or ig
Ġth read
us cript
im er
Ġas cend
Ġnot hin
Ġall igator
ain ts
AT H
ĠF ree
ĠF arm
ist ling
ĠR at
ĠR ory
Ġag ents
Ġbr ook
Ġwhere as
pl o
har m
ang s
cl osed
ĠV ol
ĠV aug
ĠY ang
So on
ign ment
Ġra ft
Ġfound er
oun ge
Ġ3 9
Ġbre ach
Er ic
Ġcons umption
Ġhigh way
Ġsk ipper
Ġass ass
ĠIs abel
Ġform al
Ġ7 7
Ġaw esome
Ġtrans form
Ġpar lor
ĠGu inea
ya wns
Ġcamp us
ĠMan hattan
Ġpress ing
Ġclub s
Ġval ues
Ġthreat ening
ĠWind sor
Ġpray ers
Ġcult ural
Ġtrick y
Gu ess
Ġdom in
Ġarrange ment
Ġtim id
Ġcontain ing
Ġpump kin
ĠMi y
Luc y
ĠHoll and
Ġinse cts
ĠForm ula
Ġstrateg ic
ĠMaced on
ĠEnter tainment
ctop us
Urs ula
Ġapprox imately
A ugust
A CT
J anuary
Q U
Q ue
S y
S end
T ra
U C
c atch
h r
r ations
s itting
Ġt ut
re rs
er ving
Ġm ant
Ġm ice
Ġm akin
Ġy ucky
or ation
Ġp ajamas
CH UCKLES
im et
ac on
ĠS AY
Ġk angaroo
ro ar
ĠM ove
ĠB ad
ĠB ack
ĠH old
ra it
Ġj ingle
Ġne ut
ĠP H
Ġall owing
ĠJ ay
ĠF isher
qu al
qu iet
Ġcom ic
ak h
ast on
Ġcl o
Ġle an
Ġam azed
Ġneed le
int ed
cl ing
Ġper mit
ix on
Ġres umed
Ġhar sh
ĠĠĠĠĠĠĠĠ Ġ
Ġacc ord
wh ining
Ġ4 2
ex cellent
Ġrep resents
Ġthank ed
Ġform at
Ġins pection
sc ar
THE Y
Ġsal ad
Ġcop per
Ġfort night
isc ons
Ġpark ing
Ġlim bs
Ġgall op
ĠMon ster
ĠMad ge
Ġphot os
Qu ite
Ġcalm ly
Ġnomin ation
Ġox id
Ġsac red
ĠRes earch
Ġconcent rate
Ġmeas ures
ĠRay mond
Ġsequ el
ĠConstit ution
ĠViz ier
Ġdefin ition
Ġfict ional
A be
M att
S ur
V EN
V III
Y et
b am
c ross
d ed
f aced
h ome
i rie
m el
n in
u ber
u gged
Ġ |
is ure
Ġc rest
Ġto re
es se
Ġp onies
Ġg azing
no body
ĠI ra
ĠI DS
Ġh ire
ic ians
Ġn aval
Ġfor given
ĠT oy
and om
Ġse ctor
Ġso ci
ĠP ercy
ĠD ale
ĠW als
ĠJ ura
ĠL ow
ĠL iverpool
ĠR en
ĠR ail
itt ens
ĠO per
Ġag gress
Ġcl ue
Ġpe pper
Ġbr ass
Ġgr ows
do ggie
av ia
ci ed
ach t
Ġsc rub
Ġcomp ens
Ġcomp elled
but ter
Ġch ill
Ġsl im
Ġche ering
Ġsw am
Ġread ily
ING ING
Ġred uction
St r
Ġcons isted
Ġ4 4
Ġfire place
Ġsub urb
aj o
Ġconf ront
child ren
Ġ7 6
ĠMay a
ik o
Go ing
Ġrece ipt
itc her
ĠWar ner
Ġcor re
Ġlow ered
ĠMc donalds
Ġstat istics
Ġrecogn izes
Ġpen et
Ġimag ination
Ġgen u
Ġsens ation
Ġtrad ing
Ġunc ertain
ĠGO OD
Ġscient ist
Ġsch olars
ĠCla ire
Ġfac ilities
Ġamb ulance
Fl orence
Ġdea rest
ĠYe on
Ġtrave led
Ġfeather s
Ġbac ter
hn f
Ġsurre nder
ĠStu art
Ġnapp ie
ĠEduc ation
ĠLoren zo
Ġdol ph
okÃ© mon
Ġtob acco
iscons in
" --
' !
3 3
B er
E at
G AS
L ee
L adies
M orning
N ame
S ub
S weet
e rest
h ou
m oo
t is
w ent
x ed
z i
Ġthe ater
Ġw ob
Ġw ires
ha ven
Ġto ad
Ġg reed
Ġl ump
at ures
ow een
ĠS ER
ĠM and
ĠA k
ĠA ff
ĠA FC
âĢ İ
ĠC urtis
ĠP R
ĠD NA
ĠD OWN
ĠW at
ĠJ ill
ĠR a
Ġex hib
od dy
Ġwho lly
Ġman uscript
Ġcl ar
âĢĿ ?
be an
Ġsc an
ob ject
Ġlea k
Ġres igned
ĠCh uck
Ġra w
Ġcol ony
ĠAnd erson
ER ING
Ġdri vers
Ġlive ly
ĠGr ammy
kes pea
Ġext ract
Ġexp enses
eter a
ific ations
Ġem ig
Al pes
Ġsun ny
Ġroll er
Ġcorn ers
Ġspec im
ĠComm on
Ġmis under
Ġfear ful
Ġcost ume
Ġrad iation
Ġvide os
gu ard
Ġcrack ers
ugg ing
Ġsurv ived
ĠPal ace
ele phant
Ġbend ing
Ġsac rific
En ough
Ġpropos als
Ġfant asy
Ġdisp osed
Ġdeser ted
Ġdistinct ly
Ġtempor ary
ĠJon athan
ju ice
hell e
nat ured
Ġstead ily
ĠOre gon
Ġcinem a
) :
. !
F if
M ind
R U
R og
g raph
h ol
h ide
i ries
m are
t rain
w hel
Ġ ï¿½ï¿½
Ġt act
in ction
in ja
Ġw aking
Ġs oo
ha fta
Ġc ul
Ġy ah
Ġl as
Ġh osp
ic als
ĠA lly
ĠC D
ĠC ry
ie ves
Ġsh h
ĠW isconsin
ĠG ary
han ie
Ġcl am
Ġcl apping
Ġtr ump
ĠK aw
pe ed
ond e
Ġpre ced
ĠIn stead
Ġmin us
Ġball et
Ġac he
Ġac celer
Ġbelie ves
Ġ4 6
Ġph ones
ĠZ e
Ġshort s
ounc ill
cri bed
Ġsn iff
ĠEnglish man
Ġsun set
iam i
Ġpar cel
Ġpar allel
Ġarm our
Ġbab ys
lo ad
Ġ193 5
Ġstat ements
Ġann iversary
ĠMe iji
Ġrub bing
ĠSm ur
Ġpuzz les
OP H
ĠJo el
ĠJo han
Ġsour ces
Ġshock ed
Ġparticip ated
talk ing
Ġtooth brush
Ġpron ounced
erg arten
Ġintern al
ĠSA ID
Fin ally
ĠJac ob
Ġhamb urger
ĠWick ham
7 6
A ub
F ar
P A
c akes
c ope
e ges
f ashion
i ency
l est
m al
r ome
r Ã©
s i
s pr
Ġ ÃŃ
Ġc udd
Ġf oss
Ġf ret
Ġf isher
Ġh ind
ic hi
et ing
et ty
Ġbe ats
ac c
ac ha
ad ays
ri k
st ri
ĠS andy
ĠA uthor
ĠB ella
ant ry
ab e
ĠW itch
ol o
ĠF E
ĠF all
ĠR oc
ĠR eb
ĠN ak
ĠN ice
ĠN ana
ne cess
And y
ov ak
Ġfl ushed
Ġcar go
Ġsc old
Ġad apt
Ġcomp ass
Ġact ors
Ġsha ped
Ġper pet
let t
Ġtra gedy
Ġpres erve
ĠInd eed
ĠTh ough
Ġfact or
sha kes
du ction
Ġdeal t
ĠRe v
Ġins ane
Ġnews papers
ĠLe ices
ĠHer o
Ġ15 0
ĠOr ton
Ġrecogn ise
Ġbow ling
ĠPol icy
Ġdi pl
ĠWh ich
Ġvi br
Ġbird ie
ades hi
Ġoccas ional
Ġcrit ics
Ġden y
Ġtight ly
Ġtax i
ĠTur key
ĠHarr ington
Ġfru its
ĠSy stem
Ġcart oon
pos es
Ġmagaz ines
Ġwitness es
ĠCla us
Ġdism ay
ĠBO Y
Ġmethod s
Ġrhy thm
ĠCommun ist
Ġcurtain s
Ġpurs ue
Ġded icated
Ġbron ze
Ġhed ge
Ġdeput y
Ġentit led
ĠVaug han
Ġgenu ine
0 20
B OTH
F ebruary
M ax
b urn
c j
d inner
e ye
m amma
t rying
Ġt ension
Ġw aved
Ġs oph
Ġs ighed
on ight
Ġb orne
Ġd ated
Ġp ip
Ġl es
Ġl aundry
Ġof the
om y
Ġha n
ow ary
ĠT it
ĠS everal
ro be
ĠA ction
ĠA br
ĠC ra
Ġnot ion
ĠB oss
ĠB und
Ġso ber
ĠP ut
ĠP arson
our ing
ĠD omin
ĠW ay
Ġout fit
Ġpl ug
ĠF estival
ĠL ily
ĠR im
os ure
ĠN ep
ĠE mer
Ġv est
ĠO P
ft en
ĠK a
Ġco in
Ġco ff
Ġco inc
ru nd
Ġun su
Ġun employ
Ġdis ple
Ġsm ugg
Ġthought ful
li ver
ec utive
Ġchar m
ĠInd epend
Ġsort ed
pr ints
Ġ7 9
Ġ9 5
Ġtom atoes
Ġcheck s
ĠGerman s
Ġz one
TH ANK
Ġstat ic
Ġeye b
Ġperform ing
Ġinvol ve
ĠJust us
Ġblank ets
ĠKe ep
Ġstream s
Ġchem istry
ĠBo ard
Ġprim arily
Con nor
Ġbend s
Cha ir
ĠHaw ai
Ġfan cied
Ġbark ing
Ġleaders hip
ĠBru no
ĠBru ce
Ġswall owed
Ser iously
Ġcateg ory
Sec ond
Ġlemon ade
Ġhal ted
Child ren
Ġignor ant
Ġguarant ee
Ġbund le
ĠSup reme
C L
c ro
d el
d iv
d ress
f old
g od
p ite
s weet
t ouch
v as
Ġa y
ou ched
Ġb aa
Ġc one
Ġc able
ing e
es cend
Ġg ent
Ġg ear
Ġl ounge
Ġwas ted
ro ck
Ġnot able
Ġwh oo
um er
um ing
ra bbit
ĠD oh
ab outs
Ġr ic
ul es
ĠJ in
ĠG U
ĠL eb
ĠR as
ĠR ain
ĠR ick
os is
ĠE arl
Ġex ists
Ġbo iling
ud es
Ġbl own
Ġbr isk
ho en
Ġco co
Ġfl ip
ru it
ĠV ar
Ġunder t
ĠIn f
Ġcont em
Ġres ent
Ġser ves
Ġmin i
Ġown s
Ġcare less
li er
Ġread ers
Ġsecond ary
Ġbro om
Ġsent ences
Ġste ering
Ġbeaut ifully
RE AT
Any one
Ġelect ions
Ġneighb ours
ĠNor way
Ġhost ed
chi at
Ġdeter mine
ĠJul ia
asc al
ĠAlf red
Ġcorrect ly
Ġpainting s
Ġsink ing
Ġghost s
Ġconstit u
bel iev
ĠSil ver
ĠVis it
ĠOak dale
Ġtox ic
Ġphilos ophy
ĠGran by
âĢķ âĢķ
Ġcush ion
ĠTib bits
Ġhoriz on
Ġresc ued
Ġaccur ate
ĠMcDonald s
igen ous
Ġappet ite
ĠMask oki
kespea re
/ /
E din
E asy
H aven
H enry
N Y
R ahul
c over
i ens
m ail
p it
p ath
Ġt att
in ia
is ation
Ġc oughs
Ġm ob
Ġm aps
Ġd ash
Ġf rench
or ia
Ġg ens
Ġl orry
no se
no ds
ic ine
Ġwas hers
Ġre views
Ġn iece
ĠT u
Ġli ed
Ġwh irl
ĠB UT
ĠH ap
ĠH ye
ra g
Ġj og
Ġup right
Ġshe riff
ĠD oc
el son
ul gar
ess a
han e
itt in
os hi
Ġv on
Ġman gan
Ġover whel
Ġqu ote
ang les
ob i
ĠV as
In stead
Ġcount s
Ġatt ic
Ġdr ums
Ġrest ed
Ġtop ic
Ġdep ressed
ĠThere fore
ier ra
Ġtri ps
wo ke
ĠNo el
Ġform ing
Ġadv is
Ġexam ined
CO ME
Ġbra ins
amer on
Ġcamp ing
Ġabs urd
amb ling
ĠSh into
Ġpen al
ĠSm all
Ġwel com
Ġaut onomous
Ġrequire ment
Ġmo ist
Ġfra g
Ġess ential
Ġrequest ed
Ġvot ing
hun ters
Ġtoss ed
ĠGirl s
hum ming
Ġgal ax
Ġconcer ning
Ġevol ution
ĠArgent ina
opard y
Ġdiscipl ine
ĠBangl adesh
ĠTW O
Ġsod ium
Ġamaz ement
Edin burgh
A X
G an
K ay
M ur
N ovember
O ff
R olan
S l
U s
b ra
b ah
b ai
b idden
l iness
m ad
p ost
p itched
u ously
Ġw ages
Ġd um
Ġf itting
Ġg imme
Ġh ood
le ans
Ġe c
im ming
ir o
ĠT un
ĠA M
ĠB uck
ĠH el
Ġj unk
ĠP ick
pp le
ul ating
Ġab use
ĠJ unior
ĠF ern
ĠL inda
Ġv au
od ore
ag ne
Ġtw in
Ġover se
Ġqu id
ang es
Ġte e
ĠV I
Ġcont ented
HE I
mm a
Ġsw ings
Ġreal ise
Ġheart y
Ġsk irt
Ġref lection
Ġ8 3
Ġpur poses
Ġhum ble
ĠFor rest
ĠPr ice
Ġdest ro
Ġsuccess ion
Ġexcl amation
Ġprotect ing
sp eaking
Ġpack et
Ġdescri bes
Ġwand ered
Ġaccident ally
Ġcompl iment
chan ge
ĠMary land
Ġcrack ed
Ġet ern
Tr ue
Ġmir acle
Ġsusp ended
Ġmerc ury
Ġexec ution
ĠSea brooke
ĠRy der
Ġfoc used
ĠMount ains
Ġprepar ation
Ġflo at
Ġexecut ed
Ġintrodu ction
ĠVal entine
ĠHot el
Ġunf air
Ġenthus i
Ġforb idden
ĠEst her
ĠQueens land
opl ane
4 3
C alm
H V
P o
P inkie
U B
b ub
b rilliant
k ov
n an
n al
Ġt ad
in clud
Ġw aff
Ġb orough
Ġc unning
Ġf est
Ġf ist
Ġy ay
Ġg ross
Ġl ent
us ions
Ġre tain
ĠM ember
ĠC op
ĠH AM
if ting
ĠP ony
ge red
ĠN umber
ĠO fficer
Ġman if
Ġbo ast
Ġover head
ud ge
Ġbl ues
ĠU FO
ass ie
Ġen counter
Ġhand y
ĠSt ri
Ġfl ashing
ach ment
Ġun necess
Ġhapp ily
ons on
Ġcr ush
Ġsl ate
Ġsl ope
Ġsw ords
ĠMar ine
Ġacc us
Ġfr own
Ġdec re
ON G
Ġinv al
Ġinter ior
ĠCount ry
Th rough
Ġgrand son
Ġmess ed
Ġbar gain
Ġopp onent
Ġexam ines
ek le
.' "
ĠOr gan
Ġdiv ide
Ġequ ation
dd ie
Ġtape recorder
Ġwhis pering
Ġlift ing
Ġcollect ing
Ġearth qu
aret to
Ġviol in
Ar t
Ne ither
Ġacqu ainted
Ġbeha vi
Ġcomment ed
Ġscrew driver
Ġinvestig ate
Ġune asy
ograph ical
Ġremind s
ĠBern ard
Ġachie ved
-------------------------------- --------
-------------------------------- ----------------------------------------
Ġspill ed
Ġbeast s
Ġrare ly
Ġdialect s
ĠCam bridge
Ġpersu aded
ĠMars hall
Ġregist ered
Mus ab
Ġejac ulated
ĠHitch iti
fashion ed
A IR
C omp
C oming
D ave
H aving
J ap
J enny
N a
T ur
T eddy
c ock
c ourt
m oving
r ace
s ince
Ġs no
ha i
Ġb owed
Ġc ore
Ġc el
Ġc ongrat
Ġo ak
Ġd orm
ing thou
Ġf ame
es y
ed ale
Ġh ither
Ġh oof
Ġh unter
Ġn appy
ly mouth
ĠT our
ĠT erry
st ate
ĠM ess
Ġme ad
Ġme lt
ĠC ow
Ġan aly
ĠB EL
Ġj aguar
ĠF ood
ĠG R
ĠL ena
ard i
Ġsp ared
ĠO pen
Ġcl asped
Ġro bbed
Ġen able
Ġpart ed
ons ider
Ġwon t
Ġche wing
Ġfar ming
Ġround s
Ġrel atively
ale nd
Ġcons ent
ok er
Ġass umed
Ġass hole
Ġple be
ĠSp eak
Ã¡ t
bl ock
Ġbath tub
Ġfil ed
Ġdest ination
Ch ief
Ġsuggest s
ĠPaul ine
IC T
ĠAm ong
ĠDan ish
Ġbutter flies
Ġbull shit
Ġeduc ational
Ġconcern s
Ġspell ed
Ġfle e
Ġregular ly
Ġenv y
Ġchap el
ĠMor gan
Ġheat hen
ache te
ĠRy edale
Ġrepeated ly
Sc ott
ĠJud ge
Other wise
Su per
Ġcitiz en
ĠUk rainian
zer bai
ĠAp al
Ġpurcha sed
omed ay
Ġpurs ued
Ġemot ional
Ġopt ions
Ġwrit ers
ĠArm strong
Ġengage ment
ĠHaut es
Ġdign ity
Ġsubstant ial
ĠBav aria
Ġtreas ures
3 00
5 1
A g
A CH
E v
N umber
a ise
m us
m oon
s ky
w ear
Ġ âĻ«
Ġa ired
Ġa uth
in ations
Ġs hat
on ne
Ġb ash
is p
an ne
or ge
ar oni
as ping
ĠI owa
Ġh ip
le e
am o
ent ially
ĠT ag
ĠT iger
ĠS alt
ĠM ain
ĠM iles
ĠA ud
Ġse arched
ĠC E
ĠB unny
ĠH at
ĠH AS
un ty
un ters
Ġj er
Ġj erk
ab l
Ġ1 20
Ġsh one
Ġsa ils
ĠF IRST
ĠG riff
ak u
ĠE ston
Ġv ary
Ġint im
Ġbo il
Ġcl an
Ġplay in
Ġro pes
ĠK ra
Ġwhere upon
do is
pt oms
ang ing
Ġsc al
Ġpr am
Ġmin ing
Ġcomm enced
Ġmon itor
br aska
Ġstand ards
ĠDe rek
Ġmet res
Ġext ensive
Ġ8 6
Ġ7 2
Ġprom ises
Ġocc urs
ming ham
Ġ17 0
ĠAll en
Ġmod els
Ġconc rete
Ġsecret ly
din osaur
ĠFrank y
Ġresult ed
Ġlock s
Ġcapt ives
ĠEx cuse
Ġmem or
under current
Ġsna il
Ġprocess ion
Ġrese ar
Ġhero es
Ġdig ital
Ġpet ition
sm all
Gu ys
ĠMel bourne
Ġliter ary
Ã¨ res
Ġdism issed
Ġgradu ating
Ġgor illa
Ġmeas ured
Ġcough ing
Ġpersu ade
ĠApp le
Ġanno ying
Ġbounc ing
ĠConfeder ate
Ġconscious ness
ĠSOME THING
GR UN
ĠLA UGH
Ġagric ultural
ĠFound ation
Ġvau dois
; âĢĿ
A in
B ER
K itty
L AND
M ight
P ull
T is
W AY
W hether
i oca
r ous
Å ¡
Ġt ch
Ġt asks
Ġa woke
Ġw ishing
Ġb ury
Ġm i
Ġm achete
Ġd amp
Ġf oes
or o
ed ience
Ġp unk
ar ation
at us
Ġha bits
ic cups
us k
id re
ac re
Ġre ct
ir it
am ous
ĠT es
ĠT ELL
ĠM AKE
ĠM ORE
ea e
ĠC f
ter m
ĠB ent
ĠH o
Ġj aw
ie ge
Ġcan s
ĠP ass
ĠD oes
Ġr andom
Ġpl acing
ĠL or
ist a
ĠR ober
ap o
ĠO wen
Ġtw e
we ight
Ġbr ute
urn s
be at
iv a
pl ays
do ors
pt ions
av an
Ġpart ial
Ġsc ul
Ġcomp are
ĠCh ow
Ġmin ers
Ġkind ergarten
Ġfin est
Ġpret ended
Ġob sc
Ġsur ve
Ġele g
Ġfr anch
tern al
ĠMiss us
Ġsub sequ
19 2
Ġ6 5
ĠFl o
ĠSo f
bl ow
ĠPro ject
col or
Ġpar ade
entle men
tom orrow
ĠSh ut
Ġesc ort
Ġstri pes
Ġrub bed
Ġnecess ity
Ġcond em
ala is
Ġviol ently
Ġpeace ful
Ġcell ar
Ġrom ance
Ġremind ed
Ġï¿½ï¿½ï¿½ï¿½ ï¿½
Ġfac ility
ĠNat alie
fin ish
Ġsquir rels
Ġcaut ion
Ġswall ow
OUN D
ĠDra ke
Ġprem ium
ĠLiber al
DO OR
ĠPrem ier
ĠColomb ia
Ġconspir acy
Ġpromin ent
D P
E ddie
G er
G ee
J AM
K now
L R
L ar
U se
p hy
r um
Ġ `
Ġb om
Ġm asters
Ġo ath
an oke
Ġp ul
Ġl ing
as ia
no ld
Ġh oll
et e
ĠT odd
ĠS ak
ĠM ah
Ġwith draw
Ġli ar
ĠC hile
ĠB orough
Ġ" _
Ġall oc
Ġr ows
Ġr ats
ood le
ĠF ur
ĠL av
na ughty
ĠR O
ĠN utt
Ġsp onge
Ġv ine
ĠO ri
Ġbo ards
ĠK ha
Ġbl oke
Ġpre mie
AN CE
Ġad ds
Ġsm ack
og a
ĠY an
orm al
Ġmother f
Ġgl ances
Ġsupp orters
Ġfar ms
ug osl
Ġunt o
vent h
Ġmar vel
Ġri pped
Ġsleep s
Ġdep ending
ex cept
Ġ6 6
Ġ8 2
ĠZ ekle
Ġexpl o
Ġev al
At t
Ġadv ised
Ġ17 8
Ġsend s
Ġprogram ming
Ġsick ness
Any body
Ġpack ing
ĠCent ury
Ġgall ant
Ġrespect ed
Ġrepresent ing
Ġpal m
Ġhost ile
Ġhy p
Ġrese mb
Ġsens es
IF E
ĠSen ator
Ġconv iction
Ġstock ings
ONE Y
ocr ats
Su ppose
Ġhorn s
ĠOb ject
Ġdistingu ished
Ġencoura ged
Ġecho ed
hors ie
dire cted
Ġdiagno sed
ĠChero ki
Ġabrupt ly
Ġwelcom ed
A dd
C romer
S aturday
T im
W ater
b ob
c har
m oney
s ame
w ake
w ord
y ells
Ġs or
ha us
Ġd ent
Ġd ict
en aw
Ġp itcher
us alem
ut her
Ġwe ars
ver ty
se a
ro gen
th irty
Ġr ides
Ġsh irts
ĠW endy
ink ling
AT TER
ĠG ene
ĠR ow
ĠN ort
ĠN iger
Ġsp ank
ap se
hi es
Ġpe ac
Ġgr asped
ĠU m
pl ain
Ġco ke
Ġco ax
ov al
Ġhand ful
har f
Ġcar ries
Ġpo verty
ru g
Ġlong ing
Ġim ple
Ġim ages
Ġthought fully
Ġnew ly
Ġsl ap
Ġcha lk
Ġra gged
Ġmin imum
Ġrec overy
Ġret rie
fect ures
unt ary
Ġinst all
Ġpop ped
Ġinter ference
Ġswe eping
Ġ8 8
fl u
Ġadv ise
Ġve ter
Ġdream ing
Ġdevelop ing
ĠPar ish
Ġbas ement
ĠRos a
Ġstrange ly
Ġspot ted
Ġport ray
aud ible
Ġris en
ĠDem ocrat
Che ers
OD Y
ĠMot or
ĠDep uty
Se ven
Ġhunt ed
ĠPri x
Ġrank ed
fin ished
Ġsevere ly
Ġsuppl ied
Ġphotograph s
Ġstrict ly
ĠChat ah
Ro anoke
Ġsitu ations
Ġdisgust ing
Ġmax imum
Ã£ o
rane an
ĠAlly n
, ,
; .
C ont
D D
D ick
N ick
O ctober
S a
S OPH
c ook
e qu
g ic
g ently
h urry
s ki
u ated
Ġw ider
ha pp
Ġb apt
Ġc hi
Ġm ing
Ġl ame
Ġh ob
Ġno mine
Ġre un
Ġre li
Ġst amps
ĠT est
ĠS IS
ĠS omething
Ġse lection
ĠC oosa
ĠC aretto
Ġwh ipped
ĠH oney
th rough
ĠP hoen
pp a
ab by
ĠG a
Ġsp aces
ĠE lf
Ġv ault
ĠK am
Ġle isure
ass ium
per t
ang o
ci ation
ĠSt irling
thing s
IS E
Ġch ur
ors hip
Ġlea gues
Ġuh oh
Ġdes erved
Ġpres erved
gr oup
LL D
Ġfoot steps
ters hire
ĠAs her
ĠDe velopment
ĠTh om
Ġhat es
Ġunderstand s
ĠBe lden
Ġ6 8
Ã© sar
ĠCl ay
ĠCl ifford
Ġext inct
Ġprov ides
unk er
ĠQ U
AS S
ĠCon c
Ġmod er
Ġpat hetic
che ster
Ġpost ed
Ġdiv ine
Ġest imate
Ġsuccess fully
Ġsuggest ing
isc her
Ġproduc es
Ġadm ire
Cl ose
Ġtall er
ĠLou ise
ĠEve lyn
ĠEm my
ere my
ere lla
Ġsevent h
Ġstrugg led
Ġnurs es
Ġyell ing
Ġstir red
ĠZealand ers
ĠMill er
ĠNE W
Ġdump ed
Ġtransl ated
ĠIran ian
Ġcompar atively
Ġwealth y
Col onel
ĠRich mond
Ġarchite ct
Ġestablish ment
ĠBrook lyn
Ġimpr ison
Ġpha se
Ġacad emic
Ġdetermin ation
ĠAff airs
Rog er
5 7
A II
B eautiful
I Z
J N
J an
S eptember
S low
T ri
T ommy
U M
V as
b ug
b bles
c mon
d ough
d ada
h on
l ion
p ower
s en
Ġb ait
Ġo atmeal
Ġd ynasty
en burg
Ġp ige
Ġl ur
Ġl ace
om on
ĠI d
Ġha mm
et to
Ġon ion
id el
Ġbe gging
im an
Ġn erves
ĠT oby
ĠS out
ĠM iami
ĠA ms
ĠH ook
ĠH ud
Ġj azz
ĠP lymouth
ĠD art
Ġr ans
Ġsh orter
ul ah
ĠJ essie
ĠF BI
ĠG and
Ġsu its
Ġsp ear
ĠE conom
ag les
ĠK id
Ġgr acious
ĠU ru
be c
ord in
Ġfl ock
Ġhapp ier
oc o
Ġnight mare
Ġfun ctions
az on
Ġsil ently
ok a
Ġmus cle
uss on
ĠTh ousand
Ġinter ven
ĠIs n
Ġ8 7
Ġ7 3
ey ed
angu age
co at
ĠPl at
Ġcirc uit
Ġeffect ively
Ġmis ery
Ġwhis pers
igg ling
ĠRuss ians
Ġtast ed
rel ated
Ġtor ch
Ġvers ions
Ġbrief case
asp berries
ĠGl en
Ġemploy ee
Ġ186 1
achel or
iction ary
Ġsurv iv
Ġcondu cted
hang ba
ĠLO VE
walk ing
ĠFrost y
Ġsequ ence
Ġarchite cture
Ġlux ury
Ġfrank ly
ĠSem in
ĠDod ds
uer to
ĠKath ryn
Ġstub born
HS LLD
sho es
Ġmarvell ous
C ur
G B
H ope
H OW
K S
L ord
S HE
U CH
b eautiful
h ill
l asses
m at
n est
p u
r ine
u u
u ate
y on
he ld
Ġa we
Ġw i
ha lf
it ia
Ġc od
Ġm ourn
Ġd war
Ġp aws
Ġg ig
ic ia
et ta
oo ping
Ġwe ighed
Ġre e
ir k
am y
ĠT AL
ĠS cientists
ĠC e
ĠH it
ĠH istor
un cle
ra ham
ge ance
ab ab
Ġsa uc
ĠG us
ĠG eno
ĠL isten
Ġal umin
qu er
os ition
Ġsp an
ĠE s
ĠO UR
Ġman s
are l
Ġtr aces
ĠK r
Ġbr ut
Ġbr ushed
Ġco aches
Ġfl ats
Ġun lock
ark er
ub by
RO W
Ġnever theless
let ta
Ġche ating
Ġstr ings
Ġsur geon
ush ima
Ġsing ular
Ġkill s
Ġlist s
Ġrest ored
ĠDe an
Ġinter cept
Ġsqu ash
EN S
Ġexp ense
Th ought
Ġprom otion
Ġ9 8
Al ice
Ġdef ensive
Ġpar ish
Ġrecogn ition
Ġtreat y
Ġdi ary
Gr ady
Mar illa
Ġsex y
Un fortunately
ĠNor man
Ġamount s
ĠUS A
kiss ing
ĠST ORY
ĠRob inson
cul es
Would n
Ġguard ian
Ġcult iv
Ġaddress ing
vo icing
Ġweak ness
Ġsurround ings
Ġbub ble
Ġautom atic
Ġmort al
Ġpant ing
hun h
Ġhen ce
ĠPen elly
Ġprior ity
Ġtravell ed
ĠLes lie
Ġsubm ission
Ġreform ed
Ġnick name
Ġrend ered
WOM AN
Ġcoun sel
ĠMR S
ownt own
ĠTerrit ory
believ able
Ġscul pt
ĠAms den
A USE
E specially
F T
F ort
G ina
G abriella
H it
L em
M I
R est
S il
S PE
T ot
] :
c ough
f les
h t
i ator
m ama
n ia
t ail
Ġ {
er ted
Ġb ask
Ġc hess
Ġm arty
Ġp ub
Ġh int
im ore
ad ise
ad ah
se en
Ġst all
ĠT E
ĠT ar
ĠB oo
th day
ĠP uerto
ĠD oto
Ġr am
ĠW right
oh ra
ĠL as
Ġal armed
Ġsu nd
ĠN athan
ak ened
ate ur
Ġv ir
ĠO B
are r
ud a
Ġwork er
Ġpre v
Ġdis order
ĠV alais
Ġsha mpoo
ks wari
Ġbit ing
oy o
Ġsw amp
ib a
Ġshall ow
Ġ4 3
Ġfollow ers
Ġmet h
ĠWe ather
Ġhat ch
Ġswe ets
du ct
Ġ8 9
Ġ7 4
enc ing
Ġquick er
Ġmain tained
Ġbusiness es
Ġtre acher
bl ocks
Ġvill ain
ĠOr leans
Ġarri ving
Ġforget ting
your s
amb a
Ġsnow ing
Ġsnow man
with standing
Ġsuper intendent
Ġproduc ing
ĠSha kespeare
Mar ie
Ġrul er
15 0
Ġthreat s
hand ed
ĠChristian ity
Ġemploy ment
Ġacqu ired
Ġcheer fully
Gu y
Ġwrest lers
Ġaccording ly
Se ems
Ġconv ince
Ġrout ine
abri el
Ġdepart ed
ĠTri pp
Ġcy cle
Ġaim ed
Ġconstit ution
ĠPen insula
Ġrust ling
omi ya
ĠIm per
song writer
ĠShan e
Ġinstit ution
Ġaer oplane
ĠPL AY
ĠKas hm
Ġdispos ition
Ġwander ing
Ġank le
ĠEthe l
Aub usson
Ġdipl om
Ġearthqu ake
A lden
C al
C ool
D a
I TE
L F
L augh
N ope
N ana
P art
S P
V al
c or
d ict
h orn
l ay
l ord
m un
n ell
r ise
t uce
Ã ´
ha les
it us
it ated
Ġd ense
Ġd ensity
Ġp aw
Ġp ots
Ġp ills
ĠI an
ĠI mp
ĠI van
ay an
am el
ĠT alk
out side
st ad
ĠS ierra
Ġk in
ĠM AR
ĠA ge
ĠA zerbai
ĠC ook
ĠC ard
ĠH ons
um bs
Ġj f
ĠP ed
ĠP el
ĠP atch
ĠW on
ink led
ĠL l
em ed
ĠN elson
ort ion
so ever
Ġpe oples
Ġbl oss
Ġbl azing
Ġthr ong
Ġchild ish
ĠV ERY
Ġch ron
Ġch orus
oy d
Ġres idence
Ġcha sed
Ġra ins
ĠFr ont
br umm
Ġ5 1
Ġ5 7
ĠTh rough
io xide
ĠZ oo
Ġconf ession
Th row
Ġcontin uing
Ġmag ician
Ġfro st
ĠAll ied
ĠLe o
ĠLe ima
Ġpar am
che e
Ġmot ive
Ġcho ir
ai ries
ĠSh ort
ĠMin chin
ĠSe oul
Ġ192 6
aps ed
Ġremain der
turn ed
Ġobs erv
Ġbound ary
Ġfre ight
Ġur gent
Ġphys ics
Ġappl ications
ĠMor ris
Ġcraw ls
Ġscr ambled
ĠCass owary
ĠLab or
Ġsch olar
ĠMax well
engu ins
Ġspo iled
Ġdisp ute
Ġflu or
ĠTor onto
Ġigno re
Em ily
Aunt ie
grow ls
Ġquant ity
Rel ax
Ġslee ve
contin ues
ĠWel sh
Mic key
Ġconven ient
Ġstruct ures
pec ies
Ġproport ion
tit les
Ġdisgu ise
YE AH
Ġcoff in
rund y
ĠEston ia
B less
D A
D ude
I O
J e
L www
N orth
P res
c old
d ist
f ree
f rog
g han
m ble
Ã ¥
Ġ ze
Ġt ips
Ġt umble
on ents
Ġf ir
Ġp ork
ar ter
Ġno ds
Ġwe lf
ac ter
Ġre verse
ot y
ri ved
ĠS www
ĠA BC
Ġse ctions
ĠC re
ĠC OME
ĠB an
ĠH OW
ĠH ugo
Ġj est
ĠD in
ĠD er
ab i
Ġsh o
ĠW ol
ĠG ri
ĠG arden
ĠG ros
em ois
ind ing
ĠN ik
ĠN ingthou
ick ers
Ġus ers
Ġright ly
Ġ[ !
Ġover l
Ġtheir s
Ġpe ek
ĠK az
ud ent
Ġco ats
Ġsha res
ign s
ug a
Ġfew er
ĠAr men
Not e
Ġfire man
Ġsub stitute
Ġdraw ers
Ġsign als
Ġsy ll
ĠZ en
Ġ9 2
Ġed ges
Ġdark er
Ġjo ins
Ġran ks
ĠBar letta
Ġmot ions
Sh r
Sh ort
Ġhur rying
Ġz ip
Ġtick ling
Ġban ned
Ġtow ers
lect ric
Ġdev ices
Ġdesign er
Ġhorses hoe
Ġtail s
ĠEx ecutive
Ġtor t
Ġjud ges
Ġscar ce
ĠWith out
Sp eak
bre vi
ĠBE EN
every one
IL TON
Am ong
Ġprint s
Ġpin ch
ĠNav ajo
Ġeld est
Ġtour ist
Ġpra irie
rig ade
Ġpatter ns
EE P
Ġfaint ly
Ġtooth paste
Ġcontribut ion
Ġsuffic iently
Ġlin er
ĠCommun ity
comm unes
Ġgreet ed
Ġerr and
Ġexpand ed
Ġresign ation
ĠPubl ic
ĠTai wan
ĠCos worth
Post man
Ġdisagre eable
appro priate
Ġsym ptoms
Gan net
ĠHAM ILTON
Ġfranch ise
emois elle
% .
A c
A IT
D un
K ate
L ight
R ay
W onder
a ver
b one
g iraffe
m ic
p ic
s un
s light
t ract
Ġ +
Ġt ies
in te
in omiya
it ches
Ġb ol
Ġhe ns
Ġha ck
ow el
Ġwas ting
Ġst ag
out ing
ĠS ab
ĠS ports
ĠM s
Ġme ets
ĠA ctor
ĠH en
ĠH ell
Ġcan vas
ĠD ennis
Ġr idge
Ġsh iny
ĠF inn
Ġor n
ĠN ong
ĠE arly
Ġman agers
Ġsay in
we gian
Ġcl icking
Ġar oused
Ġtr ot
Ġpe el
ĠK um
ĠK arl
pe as
ov ich
Ġlet tuce
ress es
ĠSt arr
Ġfl owing
Ġpre fectures
cl oth
og an
Ġper f
ĠY E
Ġch illy
ans ion
Ġra is
ĠUn iverse
Ġhar ass
Ġgl ove
Ġgl obal
Ġmon sters
bo ards
Ġcons ol
wh oop
Be cky
ĠTh ink
Ġinter face
Ġdisc ount
Ġwhe e
Ġ6 4
Ġpay s
Ġrep ubl
Ġste pping
Ġconf eder
ĠAd ministration
Ġpolit icians
Ġrepl acement
Ġclass ical
ĠPe ace
Ġya wn
Ġlo af
Ġvocal ising
Sh h
ĠPl an
Ġrequ ires
Ġdisapp oint
ĠComm and
ĠRos ie
Ġquar rel
Ġpopular ity
Re g
Ġobs ervation
._ --
Ġguard ed
Ġopportun ities
Ġscream s
ĠSy ria
Ġsail ors
Ġcelebr ation
ĠMid d
Ġchat ter
Grand pa
Ġfurn ished
Ġï¿½ï¿½ï¿½ï¿½ ï¿½ï¿½
Ġdesper ately
Ġspecific ally
Ġsav ages
Ros a
Ġdeser ves
Ġtyp ically
Ġrejo ined
Ġspect ators
ĠBir mingham
ruct ive
Ġprinci ples
Jim my
Ġimpress ive
Ġcycl ist
ĠNichol as
Ġabund ant
ĠVin cent
Ġprecise ly
Ġbacter ia
Ġunsu ccess
ĠUru gu
Ġwelf are
" ..
) .]
0 10
C oll
I AL
L I
M en
M ont
S al
V an
V ictor
b led
c s
i Äĩ
p osed
p oles
r us
r unning
Ã ł
Ġ ou
Ġw ax
Ġs nee
ha ired
Ġc ope
Ġo ctopus
Ġd ive
Ġd ots
Ġf et
om ic
Ġha ul
ld on
al al
Ġre nder
Ġn i
Ġn ay
ri ft
ri ving
am used
Ġdo ck
ĠS ciences
Ġli king
ĠC ole
ĠB i
ĠB ot
ĠH ou
ĠH orse
Ġj et
ie ur
ĠP CI
ĠD ill
ain ty
Ġr it
Ġr amp
ĠW oman
ĠW ayne
ĠJ uan
ĠG aston
ig her
ĠL is
ĠE agle
Ġv ia
Ġv ivid
hi bit
fe rences
we alth
Ġro ses
ĠK now
ĠK atherine
pe an
be ing
Ġco ins
int ellig
Ġwr ath
ĠV ik
man ces
ĠY uchi
ĠY ugosl
Ġres erved
Ġche at
Ġrec oll
Ġhar vest
bab a
ug u
Ġfather s
me ow
cle an
Ġinter rog
sha ped
Ġland scape
Ġsent enced
Ġbuild er
Ġsy n
Ġsy nd
ĠCar ib
ĠBen gal
ĠSp onge
ĠAd d
Ġem peror
Ġhum ming
Ġhorse man
Ġattack ing
Ġobject ives
che on
Ġcontro ls
oose vel
ĠPol ulu
Ġquar ry
Ġconsider ably
ribut ed
Ġperiod s
Mar gie
Ġsle nder
Bl oody
ĠMus ab
Ġphys ician
ĠHi iu
Ġdefend ed
Fuck ing
ĠEvery thing
ĠRight s
ĠMore over
Ġstir ring
ĠDel hi
Ġgradu ate
Ġpadd ling
Ġrecomm ended
Ġintellig ent
Ġmyth ology
Ġjew el
Ġbac on
Ġancest ors
ĠNob ody
ĠKent ucky
Ġchlor ide
ĠLaugh s
ĠPE OPLE
Ġpand emic
Ġcere mon
ĠWals all
ouncill or
Ġbehavi our
Ġbom ber
ĠChatah uchi
5 4
6 8
H o
J on
L isa
N ESS
P olly
c ence
t iger
z el
Ġ ----
ha ving
Ġc f
Ġd itch
Ġd ances
Ġd ioxide
Ġf i
Ġf aded
ar us
le en
ve land
ic ating
ac r
Ġn g
Ġst are
ĠT as
ĠM amma
ĠA w
Ġse w
ur red
ĠB ath
ĠB aseball
ore t
ĠP ress
ĠP itts
ĠW r
Ġbut cher
Ġde als
Ġde leg
ĠG iant
ĠL en
ĠR un
ĠN ine
ĠN BC
ĠE th
ĠE van
ĠO rigin
ich inomiya
Ġer ase
ĠK on
ount ain
av il
ĠSt adium
Ġsc ores
gg le
Ġcr ushed
Ġsl ice
Ġsl iding
In ternational
oss y
Ġatt ending
ĠAl ber
az ine
any a
Ġhigh light
ĠTh or
ĠTh ras
ĠBe at
ric ia
Ġ9 3
Ġfro ck
EL Y
Ġexam ine
ĠHer itage
Ġappro ve
Ġz oom
Ġenjoy ment
Ġdet ailed
ament al
ĠAb raham
Ġang rily
Ġappear ing
Ġcapt ive
Ġmass es
Ġfat ig
EC AUSE
Ġpun ish
Ġcro ps
ĠMed ical
ĠBert ie
Ġpsy chiat
Ġetc etera
ĠJer usalem
Ġcontain er
ĠArab ic
vest igator
cr ash
pull s
Ġpor ridge
Christ opher
Ġvent ured
Ġtear ing
Ġprotest ed
Ġrhy me
ĠFore ign
Ġaccompl ish
Ġintern et
ĠStud ios
ĠJeff erson
Ġresident s
ĠKnight s
Ġven geance
ĠOt to
ĠBrother s
imm ock
Ġinit ially
Dan iel
Ġcors airs
Ġreci pe
Ġconstru cted
Que en
Ġeyeb rows
ĠGeno a
B AR
D ay
D el
J ECT
P age
S ue
T D
a is
g ives
g ium
g osh
o qu
r ade
he nd
Ġs ab
on ica
Ġb un
Ġd ainty
or in
ac ie
Ġst ing
Ġst em
Ġst eak
ĠS ue
ĠS AME
ĠM ack
Ġli ver
ĠC ir
ĠC art
ĠC LO
ĠC ecil
ĠH ir
ĠH uns
ust y
Ġj okes
th od
Ġsh rim
el and
ĠW Ã¼r
Ġsa fer
ĠJ ar
ĠF O
ĠL ot
est ion
ist les
ĠThe atre
ĠN uclear
ard ines
ĠO p
ĠO nt
hi er
Ġex ert
ost er
Ġcl iff
ud ed
other wise
ho g
av ier
Ġun ions
AN Y
Ġrem oves
Ġsha wl
Ġch icks
Ġche ers
Ġche aper
Ġhar ds
ĠĠĠĠĠĠĠĠ ĠĠ
uc ing
Ġgl ancing
ple x
Ġfell a
Ġchar ts
Ġdear ly
Ġrest less
pr oof
Ġmiss es
arr ots
Ġpay ment
Ġcoll eges
Ġprom ote
Ġ9 7
Ġquestion ing
Al most
att empt
Ġfuck ed
ĠAll ah
ĠCon nor
Ġfavor ites
US IC
amer a
Fr ance
Ġproper ties
Ġclim bs
Ġdoubt ful
ĠFrank ie
Ġkn ives
Ġ192 5
Ġtor ment
De cember
Ġma am
Sp eaking
hand s
Ġspread ing
Ġ186 0
Was n
Could n
WH O
Ġdread fully
Ġwaste basket
Ġcustom s
Ġprint ing
ĠNav al
** **
Ġtid ying
Ġder ived
Ġterrit ories
Ġmort gage
ĠGil bert
ĠJan et
ĠNan jing
ĠAli bam
Ġigno red
ĠKir k
Ġly rics
Ġdeliber ately
ĠPear l
Ġphe no
ĠIndones ia
Ġperfor mances
Ġtherap y
ĠKap oor
ĠHawai i
ĠPhoen ix
Ġchur ches
ĠHud son
oosevel t
! --
2 20
? [
A men
C C
C e
D i
F amily
J enn
M amma
P L
T A
d ry
d ies
d aughter
g rap
l u
s wer
u ish
Ġa uction
Ġa pron
Ġs i
er ie
Ġm ÃŃ
Ġto ll
Ġto ot
Ġp airs
at on
ad ada
Ġre ins
Ġu no
ĠS in
ĠS we
ĠM UST
ĠA ce
Ġse als
ĠC air
ur se
ĠH ans
ĠH OME
ell ite
Ġ" '
op ot
ĠP O
ĠP okÃ©mon
ĠD ana
ĠD immock
Ġr ays
ĠF ine
ĠF itz
ĠG IRL
you ng
ĠR F
what ever
ĠN AS
ast a
Ġcon j
Ġnow adays
Ġback ward
Ġcl ips
so on
Ġgr ammar
pl anes
pt ic
ah l
Ġsm ashed
Ġsha ft
gg les
Ġra ises
ye isha
Ġpres idency
Ġsw itched
Ġread s
Ġdra in
gr ade
ĠAl pha
ball oon
ĠJohn athan
Ġbad ge
Be ing
ner gy
Ġ8 1
Ġ7 1
Ġcur ve
Ġgrand dad
read s
fl owers
iver ing
Al bert
Ġbar ge
Ġpubl isher
Ġgovern ments
Ġduck ie
oub ted
ĠPro bably
ĠPro vin
alth ough
ĠKing ston
Ġpost s
Ġdoub ts
ĠSe ason
Ġdev otion
Ġ192 1
Ġ192 4
Mar g
ĠSu pp
ĠMom ma
ĠNe xt
ĠNe braska
Ġscar f
ĠMon te
ĠCo ach
ĠMart ha
Ġhero ic
Ġident ical
May a
Ġcuri ously
arrow ay
Ġexcited ly
Br ad
book s
Ġpun ished
Char les
Ġscrew ed
Ġgro cer
ĠBat man
Ġpred ict
ĠTra il
Ġcruel ty
Ġsignific antly
Ġbump ed
ĠNE VER
Ġpadd le
sec ution
Ġconsult ation
Ġaffection ate
Ġembarrass ed
App arently
Ġconqu er
Ġconqu ered
Ġmac aroni
Ġkidna pped
Ġcigaret tes
ĠHung ary
Ġseas ide
ĠCommission er
ĠMem orial
Jess ica
Ob viously
Ġvic inity
Ġstor age
ĠSerb ia
Ġtroll ey
Ġvolcan o
Ġscrat ched
ĠNep al
escend une
ĠWÃ¼r zburg
) ]
: //
C ra
C ourse
D or
H am
H ear
L ondon
Z oe
e yes
l ist
l Ã¡
r ide
s im
t han
v r
w hing
Ġ q
Ġa ught
Ġthe at
Ġw inners
Ġs ultan
Ġs iege
Ġp ia
Ġp uma
CH O
Ġl ined
Ġh unters
ut ches
Ġe y
st ru
st ret
ĠS is
ĠS ad
ĠA escendune
ĠC hen
ĠB ri
ĠB oris
ĠH omer
th ir
Ġwhat soever
ĠP ART
ĠD ark
ain es
ĠW he
Ġab ol
Ġde eds
ĠF ight
ĠG as
Ġal tered
ĠR io
Ġsu cc
ĠN one
ĠN ora
Ġpro found
Ġcl atter
Ġcl icks
Ġcl aws
ud y
iss y
te le
ru ff
Ġun kind
oll o
Ġhel per
Ġsl ack
Ġra id
Ġfound ation
Ġche f
Ġret orted
ĠTHE M
ĠNew castle
wh im
Ġdep th
Ġsk ip
Ġsk ating
Ġmiss iles
Ġtri ump
ĠAn im
OR D
cha ft
Ġsign ature
Ġ8 4
Look ing
Ġcoll apse
Ġmusic ians
Ġmouth s
ĠSp ace
Ġlear nt
Ġem pt
Al an
Ġhum or
Ġtrans ition
ĠPr im
ĠPr ussia
Ġpast a
itch ing
Ġobject ive
Ġbab ble
âĢĶ âĢĿ
Ġpot tie
Ġarri ves
ÃŃ n
Ġgrow led
ET TER
Ġjud ged
Ġsepar ately
turn s
Ġtech ni
Ġmix ture
vocal ize
Ġpenc ils
Ġgod mother
ival ent
Ġinflu enced
Ġfund ing
ĠJo an
ĠRE ALLY
Le ft
Ġpsy cho
Ġwhist ling
ĠBern ardo
Ġrob bery
ĠUN DER
Ġtechn ique
Ġlem me
Ġliqu or
Ġcompar ison
Ġdisplay ed
ĠOb ama
Ġcateg ories
Ġpolite ly
Ġax e
Ġod ds
Ġelectron ic
Ġeffic ient
Ġreject ed
LAUGH S
Ġpenn ies
mir al
Ġwis dom
Ġange ls
ĠBalt imore
Ġaggress ive
Ġunnecess ary
ĠKashm ir
ĠThras her
Ġtechni ques
5 3
7 8
A ust
A ss
A round
C a
C ho
F all
M er
M ac
M aster
P lot
S everal
d rew
e als
h s
h oney
k n
o z
p ies
p icking
s ort
he he
Ġw ist
Ġw iggle
Ġs ul
nd an
Ġc aval
Ġm our
Ġo ri
Ġd angers
Ġd arted
Ġd owntown
en ance
Ġp ens
as aki
at ar
Ġhe m
Ġhe el
Ġth ieves
id i
id able
al ion
al ysis
ut a
Ġn ah
ĠS ister
ĠM ap
ĠA th
ĠA bb
Ġse wing
ĠC roat
Ġan te
ĠB owl
ell ect
il and
un ciation
ra ined
Ġj umps
Ġup ward
Ġcan e
ĠP ad
ĠP hy
ab ad
ĠW oo
ĠG ard
ĠL ock
qu ite
ĠR i
ĠR ect
ĠE VERY
fe ld
Ġtw inkle
Ġback ed
Ġ19 18
Ġoff ence
the ir
Ġplay ground
Ġpe ach
ĠK er
Ġam bit
ass an
pl ed
Ġsc hem
ark s
ĠV i
Ġsm ash
ied er
Ġsha ken
ons ieur
Ġhead hunters
ign an
Ġcomm a
Ġhar bour
ĠFr itz
Ġpres um
Ġsw orn
ĠMar gie
ows ki
me aning
de ep
Ġtable ts
Ġ5 2
Ġtri fle
ĠCha kswari
Ġform ation
Ġ7 8
ĠFl at
Ġcoll abor
Ġcur se
Ġcontin uous
Ġweek ly
Ġgra in
ĠSp irit
ĠHar vard
ĠBart ow
Ġbar rier
umb ers
ĠLe v
iter ranean
Ġap ology
Ġcho ke
Ġnin th
Ġcommun icate
THE R
la f
Ġtrust ing
ĠAm azon
off ice
Ġpark ed
Ġattempt ing
por ary
ĠAg ency
Ġvers us
tr ack
ĠChe ster
ĠDem ocrats
sm ith
Ġpercent age
Ġmoon light
vere nd
ĠChan el
Ġox en
Ġtun a
Ġqual ities
Ġmission ary
uzz y
ĠDar win
Ġcandid ates
ĠBuild ing
ĠKy ung
Ġexha ust
Ġrevolution ary
Ġsubm itted
ĠAC C
ĠTech nology
Ġneighbour hood
Ġcryst al
Ġcert ific
pee ch
ĠAG AIN
ĠCort ana
ĠMove ment
Ġneut ral
Chair man
Ġtatt oo
Ġdestro ying
Ġimple ment
ĠCarib bean
thod ox
oubted ly
B on
B oss
B rian
C ount
G erv
J osh
R F
S outh
U gh
U ARY
b od
b ike
m icro
n Ã©e
p arty
r uns
t ea
v room
he ar
Ġb ou
Ġb ah
Ġb ung
Ġy uck
es pecially
Ġp ins
Ġg ymn
Ġin ev
Ġha uled
Ġth ro
al in
al ways
Ġis ol
Ġno od
Ġre ass
ot es
se ction
ĠS ang
ro ars
ĠA ma
ĠH APP
... !
ĠP as
ĠD ig
ink er
ul ator
Ġpl aster
ĠJ ol
ĠF R
em p
ist ent
ĠR ice
ĠN isha
ap oosa
hi pp
Ġex it
Ġex clud
Ġ19 10
Ġover time
Ġar gu
Ġro ared
Ġle ct
pl ing
do ggy
Ġun w
Ġsc andal
Ġgu ilt
Ġpr ow
ens ed
Ġcr ashing
Ġsl ain
als etto
Ġgl ow
gr im
Ġbox ing
br ance
Ġair field
Ġhalf way
Ġcap s
Ġ5 6
Ġmiss ile
Ġsim ultane
enc er
Ġage nda
Ġdeal er
Ġdef inite
Ġadv ancing
Ġhon ored
ĠTH RO
Ġpat rol
Ġwall et
Ġhur led
Ġstar ving
ĠPl ace
Ġsupport s
Ġpen is
yl um
Ġcamer as
Ġpark s
Ġcre eping
Ġdesign s
ĠNot ting
Ġvol umes
Cl ub
Ġsepar ation
Per fect
Ġpocket book
Ġspeed ily
Ġairport s
Ġemploy ees
Ġspirit ual
SC REAM
Ġappre hens
ĠLem uel
ĠMed iterranean
Ġdise ases
Ġentertain ed
Ġarg uments
Ġveget able
Ġhesit ation
ĠOther s
pir ation
ĠAtl anta
Ġsuspic ions
Ġanno yed
ĠShar ston
Ġribb ons
Ġenqu ired
Ġobey ed
ĠBus iness
Ġske leton
ĠCind y
Ġlung s
ĠTurn er
Ġbuff alo
Ġsou ls
ĠPle asant
Pol ice
Det ective
Ġcoinc idence
opot am
Ġschem es
! _
4 1
A ah
D en
E P
E X
H ot
I d
M O
O E
P ass
S N
U H
V ill
W r
W AS
W innie
Y e
b less
h urt
m orning
p ants
v or
w au
Ġ ions
Ġw are
Ġw harf
Ġs ittin
Ġs omeday
er als
Ġb uh
Ġb olt
is ons
Ġc alend
Ġm ajesty
Ġd airy
Ġl ugg
ar on
ar ound
Ġhe ck
et o
ot ing
Ġn oun
am off
st al
ĠS EC
ĠM un
Ġme ek
ĠA irlines
ĠB ow
ĠB elle
ĠB ureau
ĠH un
th in
Ġr owed
Ġr ascal
ĠW ik
Ġab brevi
You ngeun
ĠG ill
Ġor gas
ĠR ing
Ġwor ries
ĠE nt
Ġv it
Ġv ital
ĠO il
ĠO liver
Ġman ual
Ġint ent
Ġint imate
au c
Ġtr act
And re
ĠK an
Ġbl ink
ps hire
Ġco c
AN E
Ġsc en
Ġgu er
Ġdis like
Ġlong ed
ĠY az
MA Y
Ġapp oint
Ġsl ides
Ġcha ins
Ġend ure
Ġtra itor
vers ed
Ġ18 50
Ġrel ate
form ation
Ġdep ths
Ġ5 8
Ġ5 9
Ġass igned
Ġeight h
ats u
Ġ6 7
Ġgra bbed
Ġfight er
Ġprov isions
ipp ie
Ġhum ili
ĠFor bidden
Ġarm ies
Ġheav ier
Ġcho king
Ġcommun ist
net ic
Ġrecogn ised
Ġmembers hip
Ġban quet
Ġcomfort ably
Ġdecl ined
elen a
Ġchief s
Ġrul ing
ĠNor wegian
Ġbang s
ĠEve rett
worth y
Ġsett lers
Ġtap ioca
ĠRE P
Ġchat tering
ĠPal est
ĠRand om
ĠPak hangba
Ġnovel s
Ġexerc ises
Ġconstit utional
Ġautom atically
Christ mas
ĠPh ill
Ġdrown ing
Ġgain ing
ĠServ ices
Ġborrow ed
Ġdecor ation
ĠFair view
Har vey
Ġembarrass ing
quick ly
Ġbul k
Ġtremb led
stra ight
ĠTall apoosa
grand ma
Ġencoura ging
ĠNob el
Ġmathemat ics
ĠDaw son
Alf gar
ĠBax ter
ĠCub a
ĠLead er
Ġsummon ed
Ġcompens ation
ĠSmur f
ĠImper ial
ĠUrugu ay
ĠOnt ario
ĠAlibam u
micro phone
" "
2 000
A f
A LE
A CE
D AR
D anny
J ung
L ie
L aura
M in
P ick
b at
b rew
b unny
c hat
c ry
c ame
d ow
h our
k ids
l ad
p hal
s igh
t ha
t ip
u ary
Ġt umbled
ou ches
Ġthe r
er red
er ness
Ġd il
ll is
Ġl ac
ĠI D
us ually
Ġbe ad
Ġwe ed
Ġre tained
Ġst alk
Ġst ored
ĠT ry
ĠM orning
ea p
ĠC lear
ĠC BS
Ġan them
ĠH and
ĠH unter
if le
um ns
Ġj ohn
Ġshe er
ĠP S
ĠP oly
ĠD enton
Ġsh ine
ĠW onder
Ġpl uck
AT ES
ĠJ un
ĠJ amie
ĠF L
ĠF ull
ess ions
ĠL ai
you s
ĠR oosevelt
Ġsome place
ĠE cu
ĠE agles
ĠO m
od ern
Ġpro cl
Ġpro long
au x
ne um
Ġtr icycle
Ġro aring
Ġam use
Ġam mun
ble m
Ġtell y
ang a
ĠSt at
ĠV III
oc ulars
HE Y
Ġser ial
uff er
Ġfire works
ĠWe re
Ġsqu ares
Ġ6 3
Who ever
Ġsy nt
ĠAd v
Ġbar rels
Ġlay ers
ĠBl ood
ĠBl ues
Ġfree zing
Ġtea pot
Ġbra kes
Ġve ins
Ġsand box
Ġorgan ic
Ġfear ing
ĠAb ino
Ġver t
Ġcompl ications
Ġ192 2
Ġ192 3
ĠNor folk
ĠMon ica
Ġhide ous
ĠPark er
Ġcru iser
hand le
Ġstream ing
Ġund o
Ġbomb ing
200 7
Ġstrugg les
Ġscream ed
Ġdread ed
Ġstret ching
Ġvac ant
Ġconv oy
Ell is
ĠSal zburg
oura ble
Ġamb ition
ĠPh one
ĠLight ning
ĠDa isy
Ros amund
ĠSel by
Ġath lete
ĠCons ervative
Ġmole cules
Ġestim ates
Ġsched uled
Ġward robe
ĠRom ans
ĠCle veland
Ġlos es
Ġfee ble
ĠRon ald
ĠDeb bie
Ken zie
ĠWars aw
ĠVe gas
Ġsust ain
Ġgrav ity
ĠAmb assador
Ġgreed y
Ġmangan ese
Ġreli able
ĠAzerbai jan
Ġpheno men
ĠEcu ador
Ġammun ition
6 1
? --
B a
B us
B ert
D ead
G erman
H O
H igh
M ister
P atch
R et
S ch
W alk
W HEN
W HERE
b ound
b by
c ard
c ia
d ifferent
f r
f y
j f
j ingle
k h
n atural
p resent
s ugar
y u
Ä «
â Ĩ
Ġt art
Ġs ardines
ha st
Ġb aked
Ġc oup
Ġc odes
Ġp p
Ġp ave
ic ity
ic ular
ri ers
ri go
am ount
am ples
ĠT el
ĠS ukie
ĠM es
ĠM ort
ĠM aud
ĠM eanwhile
ĠA F
Ġas sembly
ur ation
ĠB rett
ce ls
ĠH op
ĠH ope
ĠH EL
Ġcan cel
ĠD F
ĠD ong
Ġab st
Ġpl ank
em per
ĠR ap
Ġwor rying
Ġlook out
Ġsp here
ĠE ls
Ġcon vent
ĠO scar
Ġcl ung
Ġpe ck
ĠK ell
Ġle e
Ġaf ore
Ġgr an
Ġen velop
Ġday time
Ġun ited
Ġun will
iz ard
RO UND
Ġch ir
old s
Ġcr ooked
Ġeven ings
Ġhouse keeper
Ġhar mon
ĠFr ances
Ġri fles
ier re
Ġsince re
Ġwhe at
Ġsqu irt
Ġsent iment
ster dam
Ġform ally
Ġexpl oded
for ward
Ġsn atch
Ġclass room
Ġcho ked
Sh oot
Ġhur ricane
Ġbreat hed
Ġfail ing
Ġincre ases
Ġinvol ves
ĠPer u
su it
ĠBro ck
Ġcourt esy
Ar thur
Ġfem in
ĠEll a
Ġexplain ing
ĠHigh way
ĠCor ps
Ġeconom ics
Ġhistor ians
Pl us
Ġemer ged
Ġstraw berries
Ġho arse
Ġneat ly
ĠÃ ī
Ġparticip ate
ĠDar ling
Ġmel ody
Ġpron oun
Ġcompos ition
El izabeth
Ġdwell ing
Ġstern ly
Luc as
Ġbitter ly
ĠIsrael i
ĠSand ers
Ġimprove ment
Ġanal og
Ġtank er
Ġdisag ree
Ġtempt ed
Ġtempor arily
ĠAy ers
Ġconcer ts
Ġhydro gen
Hon est
Ġawait ing
Ġcush ions
Step hen
ĠCind erella
Ġshove l
Ġpanc akes
ĠBry ant
Ġcust ody
spl ash
Ph one
Ġsup reme
Ġemphas is
Ġrebell ion
Ġmart ial
ĠTun is
Ġauth ors
Ġbask ets
ĠPitts burgh
avil ion
Gerv aise
D ora
F rench
I BLE
M ed
R ock
T onight
W ind
W orks
c oll
f ell
g ies
h Å«
i at
i ors
l oo
n early
r g
v ag
v ideo
z ens
Ġ OTHER
Ġt el
Ġw ig
Ġs ne
Ġb ureau
or ah
es ame
Ġl oll
Ġin ject
Ġha h
Ġbe gg
oo oo
ĠS ound
ro pe
ĠM ust
ĠM aur
Ġan ten
Ġas c
ĠB ond
Ġj ur
ĠP in
ĠP ap
ĠD ur
ĠD IS
ab ul
Ġ1 000
Ġpl ac
Ġpl um
Ġpl ural
ĠG reeks
Ġwor shi
ĠE mb
od us
Ġ( ï¿½ï¿½ï¿½ï¿½
âĢĻ ,
Ġplay offs
Ġbl ah
ĠU ntil
Ġam using
ĠSt ock
Ġsc ree
gg ies
ens on
ans y
Ġbu rial
Ġfound ing
ever ly
Ġbre ed
Ġhard est
Ġcol umns
ib ilities
St art
AD E
Ġcons ervative
ok o
cha l
ĠTh ird
Ġfact ories
Ġimp ulse
Ġdisc om
Ġref res
ĠCl aud
Ġext ension
Ġste er
Ġten ant
Ġ9 6
20 10
20 17
Ġmess ing
Ġstrong est
zz o
oub t
Ġbra ke
Ġlo vers
com es
Ġpolic emen
Ġtick les
Ġsuccess or
Ġdirect ory
ĠWh istling
ĠSha ll
Ġlim b
yn am
Ġbreath less
ĠNe v
Ġhy mn
ĠJust in
ĠON LY
Sp ike
Ġoccup ation
Ġattract ion
ĠBel gium
MB ER
Ġneg lected
ĠCr us
ĠPal mer
ĠAct ress
pretend s
ele ven
Ġtim ber
ĠRock y
throw s
Ġdocument ary
ĠMet ropolitan
Ros y
ĠSpr ings
Ġrelax ed
Ġcomplain ts
ĠGil roy
ĠSav annah
gro ans
Ġcomr ade
Ġrug by
GG G
Ġrot ten
Ġdraft ed
uj ah
Ġpean uts
Hy un
Ġdistingu ish
Ġvari able
ĠMuslim s
Ġinit ial
Ġrept ile
ĠUnivers al
Ġcob alt
Ġdram atic
ĠMull ins
ĠCray le
spr ing
Ġtwe et
Shr ines
ĠHou ston
attempt s
âĨ «
' -
( '
5 2
7 3
A W
B as
C LE
D em
D ec
D AY
G ame
M ain
S et
U TE
V aud
[ "
c ery
i able
l is
l ich
r ice
v ironment
y ers
Â Ļ
Ġw al
Ġw akes
er os
Ġb usted
Ġc ove
Ġm ates
Ġm att
Ġm aker
Ġf u
Ġf ain
Ġf ried
Ġf oul
Ġf ishes
ll eng
an ic
Ġp ulse
Ġl ingu
Ġl amps
Ġin fer
om ot
ĠI MP
Ġha il
ic he
id ly
id dy
Ġre ly
ri ot
Ġst ink
ĠT reat
st art
ĠS oon
ĠS eth
Ġk i
Ġk etch
ĠM unicip
ĠM off
ĠM addie
Ġgo ss
âĢ ¢
ĠC AR
ĠC hel
ĠH aven
Ġso vere
ĠP G
ĠP iper
ĠD umpty
Ġout line
ul um
ĠG www
ig ators
ist inct
Ġor chard
ĠR est
os es
ard ed
Ġsp inning
ĠE www
Ġv amp
od a
ag en
ĠK al
add ers
ia o
do gs
Ġhand led
Ġpart ially
Ġcar n
Ġun re
Ġun inc
oc ese
Ġcomp ounds
ip edia
look ed
Ġmust ard
ĠYou T
ĠBr on
Ġdist inction
Ġbus es
Ġdra gging
Ġlight house
Ġbelie ving
Ġsing ers
ĠTHE N
Ġmar gin
Ġrest ore
ĠInd ust
Ġind ication
Ġind igenous
Ġmet er
Ġinter vals
ĠCha d
Ġplan ets
Ġconf ined
Ġgener ations
Ġpain ter
men io
Ġsn atched
Get ting
AP TAIN
umb ent
ĠBar on
An na
che stra
Ġpost bag
Ġexper iments
Ġdiv isions
Ġcal f
Ġsuggest ions
Ġought a
Ġspend s
Ġcast ing
Ġgall ery
Ġaccident s
Ġcommand s
De f
Ġrepe ating
Ġtit led
ĠWho a
Ġmer ger
Ġmer rily
Ġpun ct
Ġow ing
ĠHam pshire
Ġdefend ing
ĠDou g
Ġpill ows
Ġreck less
Ġprevent ed
Ġflag s
ĠMo z
Ġdepart ments
Ġtarget s
ĠBet ween
draw ing
Ġhook ed
Ġfier cely
ĠSqu ad
Ġminor ity
Ġhousehold s
bour g
ĠFin ally
Ġflu id
Ġpsych ological
Ġsubst ance
Ġcalcul ated
Ġconsist ent
Ġconfess ed
des ign
ĠGi ants
Ġlic ense
ĠTem ples
Ġcommit ment
might y
Ġmorn ings
Ġkilomet res
Ġfract ure
Ġprivile ge
ĠCare y
Ġalter ation
ohoh o
Ġfrust rated
ĠCatal onia
Ġrehears al
Ġperce ived
Ġeleg ant
Ġuninc orporated
F ree
G reg
H ell
H oly
I an
I LE
L and
O SE
S OME
c ons
c ala
f ar
m ist
m itted
t u
y uck
Ã «
Ġt enth
Ġs izes
is ms
Ġc emetery
Ġm im
Ġd ivers
Ġd izzy
Ġf airies
Ġto ken
an ie
Ġp ies
Ġp neum
Ġhe ed
Ġhe aling
le ft
Ġha e
Ġth ump
ld er
ke ley
ri l
ri ages
ion e
Ġst ur
Ġst ain
ĠT AKE
st orm
st atic
Ġk no
ro id
ro chee
ĠM IN
Ġwith drew
ch oc
ĠH mm
ĠP am
Ġall eg
ĠD C
ĠD re
ĠD ynasty
ĠW HEN
ĠJ u
ist ical
ĠR ES
ĠN C
ĠN am
Ġjust ified
ĠE nergy
Ġcon vert
Ġany ways
od or
Ġ( ï¿½ï¿½
Ġpro fits
so le
Ġtr im
ĠK end
Ġgr anny
ĠU CI
irst y
Ġpart ing
ah n
ĠSt aff
ĠSt umpy
Ġfl op
Ġfl ute
Ġsc orn
Ġsc ru
ĠV ig
og o
ĠIn s
Ġbit es
Ġsupp lement
ĠMar io
Ġac res
de h
Ġlight ing
Ġfell as
urt le
ctor al
Ġdri pping
AD Y
Ġdec ides
Ġsk i
uss ion
Ġass ail
Ġsub mit
arr ison
ats on
Ġref resh
Ġwonder fully
Ã© s
Ġhair y
Ġ8 00
ĠHar court
Ã¡ k
Ġblock ed
ĠPro gram
ĠSc oop
Ġhung er
ĠOr ange
ĠMc K
Ġexper ts
ĠPar aly
ĠTr acy
Ġorgan ism
sings ong
was n
ĠGrand e
Ġdecided ly
Ġban ner
Ġstri kes
ĠAm sterdam
Ġpretend s
Ġaccept able
Ġcompl aint
Ġhast ened
ba a
Ar ct
af ed
Ġsatisf actory
ĠAnge la
Ġchem icals
Ġneg lect
Ġcraw led
ĠCH AR
Ġune as
ĠMos es
Ġdim in
ĠMet ro
Ġcrown ed
Ġpassion ate
Ġbon us
GO OD
Ġsolemn ly
Ġsout heastern
Ġvig or
Ġje ans
Ġvolunte er
Ġsitu ated
ĠBos well
Ġimmig rants
ĠChin aman
gor ith
Ġprob able
Ġextend s
Ġtuck ed
ĠChamp ion
Ġacknow led
Ġfab ric
Ġroo ster
Ġbewild ered
ĠAbr amoff
Ġtad poles
ĠSpeak er
Ġpremie red
Ġdent ist
ĠParaly mp
, [
A ir
B arry
F rost
G il
I m
K ar
N OT
P ooh
P olit
R C
S us
S ighs
T op
W ITH
b ite
c omb
h it
k ok
l it
m ia
p ad
p apa
u ilt
Å Ħ
Ġt ame
Ġt ug
he ard
it ol
Ġo ar
Ġo ops
an se
Ġp issed
Ġg ale
CH E
Ġin put
Ġin ex
Ġin aug
Ġin audible
no o
Ġhe ated
Ġon ions
Ġdo omed
Ġk icks
ĠC OUR
ĠC ookie
Ġwh im
ĠB L
Ġher itage
Ġcan cell
Ġ" ".
ĠD oo
Ġr ational
el ope
ĠW ald
Ġout l
Ġout rage
ul ner
Ġde le
ĠJ ama
ĠF ischer
ig i
ig ation
ĠR oo
ĠR ot
itt ees
os ph
ĠE ight
ĠE xt
ĠE VEN
ĠO oh
Ġman ned
Ġint ellect
Ġover t
Ġar ray
Ġbl unt
Ġbr ows
urn ame
iss ions
Ġgr umpy
ps y
Ġmake up
be hind
av or
ci ously
ren ches
oc har
ĠShe pherd
gg ling
Ġra pt
Ġdes ir
li est
Ġmon ot
Ġcol ours
uff s
RA L
Ġri ot
ten ance
Ġanim ation
ON NA
iet h
Ġi od
ĠTh umb
wo ah
Ġ6 2
ĠCha mber
Ġple aded
Ġmain land
ĠAd miral
Ġpresent er
ĠFor bes
Ġart ific
Ġsun light
ED N
hel m
sc rew
Ġrad ius
Ġpack ages
Ġsol ar
Ġsol ved
Ġbank rupt
ĠAf ghan
cell or
Ġsna pped
Ġtend ency
ĠMad ison
oph one
Ġfright en
IF F
Ġrelations hips
ĠJenn er
reg ular
Ġappl ies
Ġacqu is
ĠMont ana
Ġdefend ers
ĠChurch ill
Ġrout es
ĠRog ers
Ġburst ing
ele ction
Ġscreen writer
mark et
uzz le
En joy
ĠBO OK
Ġresour ce
Ġrhy mes
Should n
Ġcritic ism
Ġagre eable
sec ond
Ġcomplain ing
Ġachieve ment
ĠBas el
FOR E
adu ate
Ġguitar ist
girl s
Ġrefe ree
Des cription
ĠVic ar
Ġindic ates
Ġmanufacture r
Ġlun cheon
Ġabsor bed
Ġassess ment
Ġprof ile
Ġgalax y
Ġcalend ar
- ,
9 2
C amp
D rop
E ither
F ore
G reen
M ine
P ri
R eal
S anta
U r
V er
W ha
W ake
d rop
g ag
m ike
s ets
s ized
w y
Ġt angled
Ġa e
Ġw ol
Ġs ling
er ation
it is
it ory
Ġb ake
Ġb ully
Ġb ald
is en
Ġc ass
Ġc rop
Ġm ent
es ar
Ġp avilion
Ġl ang
Ġha lt
ay ed
Ġn igh
se es
am ar
ĠM P
ĠA ur
ĠA na
Ġse ize
Ġse aled
ĠC ALL
ur bs
ĠB R
ant i
ant ine
Ġher d
Ġj aws
ĠP ig
Ġall ies
ĠD imit
ab ella
Ġr aspberries
ĠW a
ĠW ow
ĠW eb
ĠJ ed
ĠJ am
ĠF RI
ĠG an
ĠG em
na il
ĠR et
ĠR acing
ĠR ena
Ġsu cks
ĠN ature
ĠN IGHT
Ġsp ade
Ġsp itting
Ġany time
od ge
ag ged
Ġwill ingly
Ġcl aps
ĠK in
Ġbr ack
ian e
Ġhow l
We is
Ġfl uffy
ren ched
Ġcar ved
Ġpo ke
Ġpre jud
Ġyear lings
iz en
Ġte asing
og g
Ġrem oving
oll ey
Ġsl am
up in
ĠCh uckles
Ġcha ps
Ġcha lleng
Ġra z
Ġcount enance
ee z
Ġcour ty
Ġpol es
ition al
ret ion
ĠAl ong
amp ed
Ġfell er
sh ore
Ġpick le
Ġent reat
Ġri bs
Ġremember ing
Ġ5 5
Ġtri bal
Ġass ets
Be en
Ġid le
sha w
Ġguess ing
Ġstra ined
Ġten ants
Ġsat ellite
head s
ĠSp y
20 13
eng ine
ounc ing
Ġjo yous
Ġglad ly
ham es
ĠBar ney
An ge
Ġrele vant
Ġcor p
Ġmur ders
Ġequ ivalent
ĠMin istry
ĠAm elia
Ġwarm ly
Ġbright ly
.... ....
Ġcompl ained
Ġcomb ine
Ġtall est
ĠSam my
ĠBro s
Ġhi jack
Ke vin
Ġfre ak
Ġnet works
Ġ186 2
200 6
reg ation
OP E
Ġprim itive
Ġloss es
ugg a
Ġcontract s
ĠMed ia
Jack ie
ĠBat eman
ĠMic helle
Ġpra ised
Ġï¿½ï¿½ï¿½ï¿½ ï¿½ï¿½ï¿½ï¿½
Ġflo ors
ĠJud y
Ġreve al
Ġinstru ctor
Ġincident s
Ġpron unciation
ĠSav i
Ġbold ly
ĠCON T
Ġanno y
Ġsam ples
Ġphilos opher
ĠNever theless
Ġenqu iry
Cr ash
Ġlob ster
Ġfasc inating
Ġslee ves
Ġaspect s
Ġpoll ution
ĠCad et
ĠNichol son
ĠMod ern
Ġinher it
âĢİ .
Ġhosp itals
Ġcoco a
Ġming led
ĠThom pson
Ġmarty r
ĠHons hÅ«
wau kee
ĠMoff at
! ]
" ...
4 00
G ary
G ET
G entlemen
H www
L es
L IS
N ah
O VER
a el
a ired
d irty
h iding
i op
j ay
l ia
p res
r ina
t ic
y elling
Ġt ab
Ġt ense
Ġa irl
Ġthe ft
re z
Ġs ins
Ġs ib
Ġb out
is ible
Ġc ured
Ġf ax
Ġy ep
an Ã§
ar ming
no ises
Ġhe ating
et ti
Ġth res
ion a
Ġst ables
Ġst umbled
ĠT ot
ĠT unde
st ore
ĠS W
ĠS um
ĠS leep
ĠM ick
ĠA cc
ĠC rim
Ġan arch
ell i
un less
Ġj ug
Ġall iance
pp led
ĠD onna
ĠD AY
ĠD arry
Ġr oused
Ġsh ru
Ġsh ifted
Ġsh ooter
ĠW ON
ĠJ ared
ess ed
ĠL ib
ĠR ound
ĠR AD
ĠR idge
ĠN FL
res pect
Ġv ow
Ġv icious
ĠO d
ĠO w
Ġex agger
Ġback up
Ġoff ensive
ne g
Ġqu oted
Ġtr unks
Ġbl oom
Ġgr in
be gins
ass et
Ġen chan
pl us
Ġmean while
ff er
Ġfl ick
Ġsc ent
cl ed
cl im
ĠShe ila
Ġrec alled
Ġgl o
Ġmen u
Ġreg ards
Ġwar fare
sh rie
Ġmar ching
Ġred und
Ġred ucing
Ġperson nel
pr it
Ġ5 3
ual ity
cha e
Ġmet eor
Ã© r
ĠCha nd
ĠFl ight
Ġcur led
Ġcat al
Ġinc on
Ġfight ers
20 16
Ġtre ason
ĠRe ich
fl akes
bl ast
Ġmark er
ĠBar bie
net te
ĠTr inity
ris ing
Ġbas es
Ġadm ired
Ġris ks
field s
Ġcrew s
ĠBer keley
Ġinflu ential
Ġaud io
Ġmotion less
Ġremem brance
fall en
Ġcoast al
Ġhistor ian
Ġproceed ing
Ġdefend ant
Ġant agon
ĠCr own
Ġopin ions
Ġtour ing
ontin ued
Ġarg ued
Ġinha b
Ġpil ots
Ã± ora
ondisse ments
Ġmap le
Ġslipp ery
Ġrestaur ants
ĠRichards on
Ġsuck ing
urg ers
ĠDu plo
Ġflood ed
Ġwip es
ĠSol omon
Ġforb id
Ġbid ding
ĠDev on
Ġinstit utions
Ġorganis ation
Ġindign ation
Ġlob by
Ġadvert ising
Ġignor ance
fif teen
Ġgloom y
Ġstair case
ĠDID N
Ġrept iles
ĠPres ently
ĠSyl via
quis ite
mel on
ĠIra q
Ġtrump et
ovak ia
Ġinval id
Tur k
ĠPLAY ING
ĠTas man
ĠCair o
Ellis Weis
Ġgoss ip
Ġpneum onia
EllisWeis mer
" :
6 3
9 8
A le
A ng
A side
A IL
B at
B ir
B orn
B ELL
L T
M il
M ISS
N ay
N ational
N ancy
S ing
S ally
S ex
T igger
V ED
c ott
g ame
g ave
j ah
k k
l ance
m ars
m aker
n ake
o ft
t v
u um
u ffe
v ar
Ã ī
re f
er ies
it ations
is ie
Ġc yl
Ġm all
Ġo y
Ġd ice
Ġy acht
Ġto il
Ġp all
Ġg out
Ġg own
Ġg ender
Ġl am
Ġin ward
om ers
Ġhe ir
Ġh oss
Ġit ch
ic ting
Ġwe aker
Ġwe eds
Ġst am
ĠT s
ĠT ree
ĠT anya
st uck
st ration
st raw
ĠS end
ĠS port
ĠM ail
ĠC osta
Ġas ylum
ill ery
ĠB rew
ĠH www
ĠH elp
here nt
Ġj inja
ĠP u
Ġall ey
ĠD raft
ul i
Ġpl under
ĠF ollow
ĠG en
ĠG REAT
ĠG arroway
ĠL IGHT
Ġal gorith
ĠR EC
ĠR AF
ind e
ĠN ov
Ġthink in
Ġcon es
Ġcon vention
ap or
Ġv s
ep h
od s
Ġwhen ce
ĠHe art
Ġcl erk
ne z
Ġar ise
He e
Ġbr ow
pe ep
ire ct
Ġen force
ov an
ĠSt re
Ġfl ush
hm en
Ġcar pent
ach oo
ĠV II
Ġunder take
ĠShe riff
Ġper fection
Ġhome less
ling ton
Ġcr ust
Ġcr ouched
let ub
aw yer
Ġres ulting
air plane
Ġra pe
Ġcomm ence
Ġrec y
Ġbaby doll
Ġuh huh
Ġkeep er
ee ze
Ġbre eding
ĠBr ace
Ġread iness
Ġside walk
Ġbelie fs
put er
ĠAr cher
St arting
wh istles
form ed
Ġwind ing
Ġsk ies
Ġsk etch
OR TH
good bye
ĠFl ag
Ġprom ising
Ġsong writer
min ster
RE D
20 11
Ġtre nd
fort une
Ġpubl ishing
olog ists
Ġtrans mission
Ġ10 1
ham pton
Ġce ase
Ġlow est
Ġcirc ulation
with out
Ġbas in
Ġwarm th
Ġver dict
Ġhall way
ĠST AR
Ġdestroy ers
Ke ith
Ġsatisf y
Ġsett ling
Ġemploy er
ĠJenn ifer
Ġiron ing
Ġow ed
ĠCat hy
ĠDO OR
ĠRoman ia
rid ges
Ġsurv ival
Ġstro kes
ĠMil an
ĠMil waukee
Ġwha les
Ã¨ s
Ġbin oculars
Ġdetect ed
Ġrob ot
Ġadvant ages
Ġflo ated
Ġess entially
ĠHal f
Ġ188 0
scream ing
Christ ian
ĠBa iley
Ġconcent ration
met ic
Ġrat io
Ġpupp ies
cray ons
bot tle
PH ONE
Ġresident ial
ĠPot ter
ĠTem ple
Ġdrift ed
Bel ieve
Ġsumm ons
ĠCur ly
ĠArgent ine
ĠFel gate
ĠIslam ic
Ġcri b
Ġkilomet ers
Ġdissol ved
ĠJos Ã©
Ġalt itude
ĠFriend s
ĠNap ole
Ġclin ic
Ġsqueal ing
orig inal
Ġshat tered
Ġveter an
ĠTest ament
Ġrans om
Ġtriump hant
ĠWik ipedia
ĠSavi our
F riend
H an
H and
I mp
I rene
L au
L ands
M uch
M EN
P il
P RO
S leep
c ousin
h ope
j hnf
p m
s now
w ants
Ġt anks
Ġt renches
in ha
ou x
is i
Ġm ol
Ġd ang
Ġd ung
Ġf ry
Ġp iled
no v
le aves
ac eae
Ġre venue
am oto
Ġdo zens
Ġst ooped
ĠT ina
ĠS op
ĠS lo
ĠS af
ro v
ro ps
ĠM are
ĠM ik
ĠM UCH
ĠM USIC
ĠC and
ĠB or
ĠB ulgar
ĠH unting
ĠP ic
ĠP inkie
Ġall e
ĠD ance
ĠD onson
ĠW eek
Ġpl ough
ĠG ONNA
ĠL ost
ĠL assie
ĠL IFE
ist ol
ĠR ider
ĠN ash
Ġsp lin
Ġex quisite
fe et
Ġpro bab
we ed
Ġar d
Ġqu art
ĠK yle
Ġbl aze
iss ance
Ġam p
Ġam ateur
his m
Ġsc am
ĠV erm
og s
Ġcomp act
ĠShe ll
Ġapp rent
Ġsl id
Ġeat in
In spector
Ġnight time
Ġdes ires
row ing
Ġpol ish
Ġread er
Do or
ĠAl ready
Ġwar mer
Ġpass port
any way
Ġdep ended
Ġ5 4
ĠEd wards
Ġind uce
Ġwond ers
Ġinv iting
sel s
Ġdisc o
Ġland lord
Ġrep ay
Ġrep orter
Ġgener osity
Ġmain tenance
Ġ9 1
ĠHar a
ĠRe ady
ĠBart ol
Ġblock ing
Ġfree ze
ĠSc ar
ĠSc ream
An swer
Ġsurpr ises
ĠIN D
Ġve xed
Ġstation ed
Ġdoub ted
ĠPl ant
Ġcirc ular
Ġdem ocratic
Ġexcept ions
isc asset
Ġswim mer
ĠLea ve
Ġdescri bing
Ġemp hat
Ġelect ro
Ġkn elt
Ġcapt ivity
Ġchief ly
Ġgar ments
ĠNe il
Ġmix ing
Ġbound aries
Ġstorm s
Ġmarket ing
Ġ186 3
Ġimm une
Ġproud ly
show s
Ġspr ings
ĠFort ress
ĠEn vironment
Ġtravel s
Ġbeha ved
Ed ward
Ġcivil ian
ograph ic
Ġheaven s
ban ana
Ġentertain ing
Ġhurried ly
ĠÃ ģ
Bet ween
Ġmel ted
ĠStep hanie
Sm all
Ġtal ented
Ġconcent rated
ĠDa wn
bro ke
Ġpoison ed
LO OK
ĠAp ollo
Ġpension ers
ĠDen mark
Ġcris ps
Ġgrace ful
ĠFair y
Ġbord ered
Ġthrill er
Ġloft y
Ġmaid en
Ġgle am
mind ed
Ġorganis ms
ĠOl ivia
ĠJosh ua
Ġnarr ative
ĠBox er
Ġnav y
whe el
ĠJas mine
Ġavo ided
ĠAnton io
Ġcant ons
Hall o
Ġforgiven ess
Ġcorre cted
Ġdolph in
ĠSER IES
Ġfoss il
Ġcel ery
Ġhoof s
isp here
Ġretrie ve
Ġsurviv ors
ĠYugosl avia
Brad ley
Ġargu ing
ĠNotting ham
ĠNev ada
design ated
choc olate
Ġincon ven
6 7
B ull
F E
G ro
H ea
K ill
M s
b un
c ircle
d ust
e i
e ous
i qu
m rs
n ation
n ets
n ik
n vr
r ings
y i
Ä ĥ
Ġ ic
Ġt ed
Ġt et
Ġt il
in side
it udes
Ġb unk
Ġo ink
Ġd ictionary
Ġp ail
Ġg room
Ġg uts
as ingly
ĠI mm
Ġh ull
le m
us ively
ut o
Ġfor wards
se mble
ĠT res
ĠT ae
ĠT hames
st ruction
ĠS PE
ĠS elena
ĠM ake
ĠM ason
ĠM abel
ĠC ontin
Ġan th
Ġan onym
ur ring
ill as
ĠB ou
ĠB ess
ĠH ilda
ĠH assan
ant h
un ned
ĠP C
ĠW OM
ĠW atson
ĠF ab
IN ESS
ĠL ex
Ġsu llen
ard e
ag uchi
Ġback ing
ĠHe brew
Ġcl ergy
Ġqu ad
Ġtr oop
Ġro sy
Ġbl ade
Oh h
Ġhand ling
av y
Ġcar ing
ys ide
Yes terday
Ġyear ly
Ġpr ote
ĠV all
Ġad ap
let ter
let ons
Ġchan nels
Ġtra uma
ident ly
Ġfin als
Ġfin ishes
Ġmon aster
Ġrun away
Ġear ning
ec ess
OU SE
St an
Ġcap ability
ON D
Ġsk ate
Ġinv aded
Ġmet ropolitan
Ġsign ing
ĠBe ing
Ġcent res
ĠJap s
Ġstra p
ene gro
ĠSp ani
Ġvis ual
Ã¡ s
Ġbar bar
LE ASE
Ġfore cast
Ġadv oc
ĠPr ison
AM P
ĠAll iance
Ġlaw yers
Ġpat ron
co ffee
Ġcor rid
ĠX IV
Ġfil med
ĠPar amount
some where
Ġhang ed
Ġequ als
Ġcop ying
Ġbur gl
ĠRep ort
Ġwhis key
ĠSha wn
ĠSe o
Ġmam m
Ġinvol ving
Un ited
Ġrul ers
wr ong
roll ed
Car oline
ĠFred dy
Ġwest ward
Pro per
Ġund oubtedly
Ġshore s
ram id
Ġinqu iries
Ġoccup y
fall s
Ġresol ve
Ġstre ak
Ġsch olarship
ĠĠĠĠĠĠĠĠĠĠĠĠĠĠĠĠĠĠĠĠĠĠĠĠ ĠĠĠĠĠ
ĠĠĠĠĠĠĠĠĠĠĠĠĠĠĠĠĠĠĠĠĠĠĠĠ ĠĠĠĠĠĠĠ
ĠMur phy
Ã¶ r
ĠArab ia
Ġcrim inals
Ġconce al
Love ly
ĠCons erv
ati ently
ĠDra gon
ĠLi brary
Ġconsist ing
ĠStand ish
Bre ak
Eng ine
Ġlos er
ĠKir by
inet een
Jo el
mum mie
ĠWalk er
ĠUs ually
Ġexplore r
Ġratt les
ĠPun jab
Ġsty les
Ġrenew ed
Ġcorrupt ion
ĠCOMP ANY
ĠAdvent ure
Ġprecip itation
Ġastron aut
Mal colm
Ġfug itive
Ġexhib ition
ĠCra ig
Ġpenal ty
ĠPed ro
Pres ently
Ġfatig ue
Ġbung al
ĠPleasant ville
Ġcourty ard
uffe ur
ĠBrace well
ĠHara oba
! !
6 2
9 1
B it
D in
D oc
H el
N ER
R oland
T Y
U LL
Y a
b uzz
f uss
f alsetto
h ung
i ri
i ven
k m
l ength
o oming
p our
s hire
t che
Ġt igers
Ġthe ories
Ġs essions
is ode
Ġm ound
Ġo le
Ġd ah
Ġd uke
Ġp orts
Ġl akes
Ġl uc
Ġl icking
at ers
at hy
Ġh orm
Ġth ither
Ġn anny
Ġst ages
ĠT oll
ĠS ide
ĠS ony
ĠM ONEY
ch urch
ĠC un
ĠC arson
ĠC ameron
Ġwh oles
ĠB ooth
ĠB apt
ĠB iden
ĠH ood
Ġso aked
Ġr ash
Ġsh rill
Ġsh ifting
ĠW atch
Ġout ward
ul in
ry s
Ġab ilities
ĠJ eremy
ĠF ALL
ĠG abriel
han y
ĠL oc
ĠL iter
ĠL amb
est one
Ġsu e
what cha
ĠN oddy
Ġsp ee
Ġcon quest
ap y
ĠHe ights
Ġ19 00
Ġ19 15
Ġqu aint
Ġtr am
Ġtr ough
ud er
Ġbl amed
hy l
ho ven
Ġhand ing
iz er
oll en
ens en
Ġhead phones
Ġsl ay
Ġsl ips
Ġlea ping
Ġra g
Ġel abor
Ġseem ing
she ep
Ġcour ts
ĠMar ines
Ġbus iest
Ġdra ught
Ġob edience
me an
de al
Ġreg iment
Ġret iring
Ġopen ly
Ġfr antic
pr ot
Ġtri angles
Ġinv isible
Ġpaper work
Ġdisc rim
Ġdisc ontinued
Ġ6 1
ĠChrist ow
Ġform idable
Th us
Ġcoll ision
Ġaw akened
Ġinc orporated
Ġless er
Ġlady bird
for ced
ĠFor ces
ĠPro du
An n
Ġpot assium
Ġpartic les
Ġlow ers
Ġfil ming
lo be
Ġpleas ures
ĠMan n
ĠPar menio
ĠTr ust
Ġoper ates
ĠSh in
Ġpract ise
Ġtest im
Ġclos est
Ġmis fortune
AL IAN
Ġshut ting
Ġsol itary
ĠIT ALIAN
Ġgen ie
Ġrespect ive
ĠHall oween
Ġpriv ately
Ġtech nolog
Ġrespons ibilities
Sure ly
Qu iet
log y
gl ass
Ġimm ort
Ġdeb ts
Ġemb ark
Ġbrave ly
ĠCarl os
ĠAct ivity
Ġir re
Ġconv icted
Ġ190 8
Ġder iv
itar ian
Ġhabit at
ĠSax on
tt p
Ġlink ed
Ġlic ence
Ġnick named
Pat rick
Ġhydro xide
Ġunlike ly
Ġloyal ty
ĠWes ley
Ġmath s
Ġscra pe
____ ____
ĠTha iland
ĠCommon wealth
ĠGR UN
ĠConc ord
duct ive
Ġceremon ies
ĠPhy llis
ĠHEL P
abul ary
Ġdele gate
letub bies
Ġspee ches
6 9
A wards
C ass
G as
J ake
K aren
P ant
P ra
R en
S and
S ean
b ach
c ony
e lect
f il
i h
k ick
l ate
l ift
p ast
r ust
r ison
s and
s low
t ier
Â ¡
Ġ iv
Ġw ri
Ġw reat
Ġw rench
re ens
Ġb uns
Ġc uck
Ġm c
Ġd w
Ġf ri
Ġy onder
ed ar
Ġg er
Ġh ides
Ġwe as
ri um
Ġfor ks
ĠT at
ĠT oo
ĠT ournament
ĠS S
ĠS ighs
ĠS IGHT
ĠS weet
Ġk ittens
ĠM is
ĠM ix
ĠA ub
ĠC ups
Ġnot icing
ĠH aving
op hil
ĠP ence
ĠD rew
ab ilities
ĠW i
ĠW ard
AT ED
ĠF uj
ĠL iz
ĠL anc
qu in
Ġor bit
ĠThe odore
Ġjust ify
od er
Ġ( ).
Ġint entions
Ġbo iled
Ġoff ense
ne ys
the d
ĠK u
iss ing
Ġen abled
Ġtell in
ĠSt acy
cc oli
Ġsc ound
Ġsc oop
Ġdis abled
ĠV iolet
Ġcr ick
Ġcha os
Ġche ered
Ġcour te
Ġmon ument
Ġsur m
eb u
mb a
omb s
Ġind uced
Ġid i
Ġid ol
Ġ6 9
Ġcontin ually
Ġgrand mamma
min ute
Ġtele graph
20 18
ĠRe al
IT NESS
Ġpri ests
att ie
RI GH
Ġpast ure
Ġrece iver
Ġcreat es
ĠSte el
Ġmot iv
Ġtick ly
Ġcover age
Ġcharacter istic
ĠAb d
ffic ial
Ġval id
ĠWell s
ĠEl mo
Ġvol t
Ġsouth western
Ġver bal
ĠMal ays
Ġtor rent
Ġtor to
Ġshoot s
Ġhost age
Ġconvers ations
Ġpers isted
Ġhy ster
Me et
ĠMad ame
Ġoppos ing
ĠKe ene
Ġappl ause
Ġeager ness
Ġoffe nded
Dad aw
Ġfault s
ĠBel arus
ĠDO ES
Ġproceed ings
Ġtap ir
Ġenter prise
** *
Ġgro aned
Ġconv ict
isher s
ĠCanad ians
ĠRem ember
Ã¤ ÃŃ
ĠTri p
Ġfuss y
cr ack
Ġcas hier
Ġcontribut e
ĠWood s
sell ing
ĠDes ign
Ġhug s
Har old
Ġdiamond s
Ġbush r
Ġspark ling
Ġaband on
ĠClar ke
Ġfo am
Ġreb uild
Ġtempt ation
ĠTrans port
ĠFle ming
ĠNa omi
Ġathlet ic
Eng lish
Ġunivers al
Ġlabor atory
ĠSno opy
Ġult imately
Ġgrim ly
overl apped
Ġintegr al
Ġmorn in
Ġyield ed
Ġrein force
NE W
Ġmars hal
Ġcolon ial
Ġturb ochar
Ty ler
Ġbrid ges
fight er
Ġdischar ged
ĠLion el
Ġcompre hens
Ġbarr acks
ĠBund es
Ġmanif est
SPE AKING
Ġfluor ide
Ġstag gered
ĠAth let
Ġstur dy
Lands chaft
" _
6 4
A gent
E ast
E vent
F a
G osh
I LD
K o
M oney
N HL
O CK
S AR
S ister
V is
b um
c ats
c amera
f u
j um
m ers
m ix
p ol
p age
s aw
t rees
t owel
w ife
y ucky
Ġt an
ou ver
Ġw ink
Ġw igg
Ġw ailing
Ġs aint
Ġs aints
on et
it ness
it imate
Ġb ak
Ġc ement
Ġm oss
Ġf el
Ġf ountain
ed i
ed ed
Ġp ose
Ġp harm
Ġl olly
ar act
as i
Ġha unted
et ers
et ies
Ġbe et
ac s
ad le
ad ers
Ġst ew
ĠT RA
ĠA unty
and ro
ĠC iscasset
Ġnot withstanding
Ġwh oops
ĠB uc
ĠB ASE
ĠP ars
Ġall igators
ge me
ĠD ec
ĠD ays
Ġr iches
ĠW arden
ĠW AY
AT ER
ĠG or
ĠG ate
han a
ĠL uck
ĠL ina
em on
ĠR ita
ĠR INGING
Ġsp okes
ĠE T
-- âĢľ
Ġtw inkling
Ġ( ï¿½ï¿½ï¿½
Ġpro dig
au de
Ġback yard
ĠHe ath
Ġ19 17
Ġ19 14
Ġcl inging
Ġfe es
Ġbr ushing
pe ek
Ġgr id
orn s
age ment
be f
iv ic
ty pe
ass i
te e
Ġen s
ull ah
ru gs
Ġun l
Ġun gr
Ġpre lim
RO N
ful ness
Ġcr ank
Ġcr utches
Ġsl aughter
Ġres erv
ars ity
orm ally
Ġhar ness
ee e
Ġgl owing
Ġcour ses
Ġac ute
ES CO
ĠAl most
Ġinst ruction
pr int
ĠAn laf
Ġimp atiently
Ġbuild s
Ġrep aired
Ġmonth ly
Ġcountry men
ĠZ ohra
Ġexp end
Ġexp osure
UR N
Ġcur ric
Ġcontin ent
Ġ9 4
for mer
Ġpubl ish
ĠTO O
Ġtouch down
Ġbra very
ĠPhil os
Ġpartic le
Fr iday
uk u
ĠTr ade
was her
Ġhop ping
work ing
ĠEurope ans
Ġgrow ling
Ġled ge
Ġdecl ine
Ġhuman ity
Ġloc ations
light s
ran o
Ġarr anging
Mom ma
su per
Re becca
Ġphot ographer
Ġ186 5
ĠME AN
ĠBer gen
Br own
Ġinqu ire
Ġremem bers
WH Y
ĠBel ize
ĠAlf ie
ĠPlay er
ĠBert ric
Grand father
Ġtid ings
ĠProv idence
Ġcontr ad
Ġsore ly
Ġsole ly
ĠArt ist
ĠRepresent ative
Ġcritic ized
Ġrejo iced
Ġmechan ical
ĠWOR K
Ġdough nuts
ĠAle c
Pre par
ĠEN D
ĠVill age
Hon ours
hors es
overl ap
ĠAz ad
ĠPeters burg
Ġcors air
fif ty
Ġaccommod ation
Ġbru ised
Ġdistract ed
Ġinterpret ation
Ġsulf ur
ĠRab bit
Ġshud der
Ġmos qu
butter fly
ĠLeices tershire
Ger ald
ĠElf wyn
Ġbrut al
ĠOB JECT
Ġconfeder acy
ĠLis bon
Ġcaval ry
Ġworshi pped
ĠYouT ube
7 1
B AB
J os
J oy
M et
O l
T exas
_ ,"
b ara
c op
d um
e ffic
f ull
f ront
l anguage
m ns
n ormal
s wing
t urtle
v ate
w orld
z in
z an
Ġ ion
Ġt read
Ġt apping
he a
in ny
Ġb ough
Ġb ounds
Ġc ube
Ġd umper
OT S
Ġp ard
Ġl oo
at in
at ics
ve red
ic us
al gi
ot hes
am ents
ĠT rees
ĠT sar
out ed
st s
ĠS aud
ĠM aine
Ġse aman
Ġli zard
ch ick
ĠC ay
ĠC ald
ĠC emetery
Ġan ime
ur u
Ġwh iz
Ġwh ining
ĠB il
ĠB ren
ĠB everly
ant astic
Ġup wards
ie val
ore r
op ause
ĠD oll
Ġout break
ol as
Ġde cks
Ġpl ight
ĠJ esse
ĠG ab
ĠG az
ĠG ippie
ĠL F
ĠL iving
Ġal ien
ĠR oom
ĠR iley
Ġsu ite
ound ing
ĠN ation
Ġcon sole
Ġv room
hi ya
Ġtw ent
ous y
Ġback pack
Ġ19 19
Ġover sp
Ġcl ues
end ix
Ġplay dough
iv ism
te ch
pl ate
act ions
Ġco aching
ĠSt alin
Ġfl owed
ru ce
Ġte et
Ġte ase
Ġdis put
Ġdis band
ub a
Ġad equ
hes is
oc ity
ĠShe ldon
ĠY uc
ĠY ears
let te
port ant
ple nd
ank ing
ung a
Ġpres ume
br as
Ġair planes
eb ook
Ġmind ed
Ġlist ens
Ġrel ieve
Ġmus k
Ġtri pped
Ġvo iced
Ġass isted
Ġimp et
Ġdraw ings
ĠCl amp
Ġexp ansion
Ġgra vy
fl ix
Ġins ign
Ġhorse men
ĠOn line
Ġorder ing
Ġart illery
Ġclean er
Your s
ham mer
Ġconst ruct
Ġcor ps
Ġ16 8
ĠX box
ĠOr thodox
Ġpost p
Ġpost man
ĠSh ir
Ġpublic ly
ĠMin ardi
Ġtreat ing
Ġgrow l
ĠSha w
Ġbull ion
Ġdev ast
Ġelect rical
Ġgen es
De ep
ĠSund ays
Ġspell s
Ġobs erve
ĠChe m
Ġ186 8
Ġphys ically
ĠIS LAND
ij ay
Ġoffe nd
Ġindust ries
Got ta
Ġ187 8
Ġbal cony
Ġpa using
Ġharm less
Ġeld ers
Ġaffect s
Ġbi ology
tw elve
ĠNet flix
ĠSl ave
Ġpositive ly
Ġattend ant
ĠBa ek
ĠWood y
Ġslipp ing
Ġimit ate
Ġsymb ols
choo choo
ĠPo acher
mag ine
ĠRome o
ĠAsh ley
ĠNic ole
Ġancest ry
Ġexperiment al
UP P
Phil ip
ĠHung arian
Ġbond s
ĠColumb us
Ġsung lasses
Ġmathemat ical
Ġrecon c
Ġlegisl ature
build ing
ĠCru z
Follow ing
Ġbail iff
ĠRu pert
Ġclo ak
ĠOper a
Ġspecim ens
ĠAuthor ity
adeshi ko
Ġfrag ments
Ġfest iv
ĠNiger ia
Ġmans ion
Dor othy
Ġey el
thir teen
tele phone
Ġisol ated
Ġorgas m
ulner able
Ġinhab ited
6 5
B ALL
C www
D allas
E uro
J ac
K L
L IE
M o
M akes
P R
P romise
R ose
R ead
S EL
S ara
S ikander
W ARD
b red
b ank
e gg
m uch
p oo
r oo
r ac
s we
t im
t ropical
t adah
u en
w ipe
Ġ Â°
Ġt ents
Ġc ongratulations
Ġm as
Ġm entions
Ġf olly
Ġf lex
Ġy arn
Ġp omp
Ġg ut
Ġg au
as al
Ġh ush
ic ab
Ġbe in
ut ton
Ġre el
Ġre ds
ri ver
ri ous
st icks
st arts
ĠS eb
ro ach
Ġme ow
ĠC ock
ĠC RA
ur gh
Ġwh ore
ill on
ĠB ag
ĠH umpty
ĠP ER
ĠP unt
ĠD aven
ĠD odd
ĠD iana
ab ase
Ġlike wise
ĠW ii
ĠJ i
ĠJ oint
ĠJ aguar
ĠJ orge
ĠF inal
ĠF alls
ĠG on
ĠL ank
Ġal as
ist ant
Ġsp elt
ĠE sp
Ġint ently
Ġ19 13
uh h
Ġpe ered
ĠK aly
Ġbl uff
Ġbl onde
ue y
ho on
ĠSt orm
ady s
ys s
Ġun ac
Ġun con
AN C
cl op
man s
Ġch urn
Ġch ili
Ġch uckles
ĠUn it
ail or
uc a
There fore
Ġtra gic
Ġfin ance
ĠBr istol
Ġdist ressed
Ġpret ti
gr own
ĠBut ter
Ġbest owed
ener ation
ĠAr ound
Ġph oned
Ġph osph
Ġtri ll
OR K
Ġeight eenth
Ġhat red
Ġdisc ern
ouch ing
Ġrep ent
Ġste alth
Ġple bes
20 19
ipp y
ipp on
ĠRe venue
ĠBart ram
bl er
AS H
Ġreason ably
Ġart istic
ĠCan al
ĠHer mann
Ġpar cels
Ġconst able
ĠSw an
Ġfil thy
ĠAust in
Ġview ed
Ġpract ices
ĠWest minster
Ġcharacter istics
Ġfort ress
Ġpublic ity
Wh ose
rit ers
igg ers
Ġsol ic
Ġbright er
Ġlab els
Ġengine ers
John athan
Ġver te
Mar ion
Ġrespect s
ĠEx pl
Ġhast y
alt ies
ĠMac Donald
200 5
could n
oos es
pro fit
Ġinqu iry
Ġrevol t
ĠDid n
ĠChan cellor
Ġdemand s
ĠMed icine
Ġwrest le
ĠEr m
ĠSing h
Ġclaim ing
Ġvac ancies
Ġchoo sing
Ġpred ators
ĠDel ta
pull ing
sque al
Ġcrim son
ĠNE ED
ĠSH OULD
Ġdemon stration
ĠRod rigo
Ġcontest ants
Ġmechan ism
Ġthrill ed
ĠLu is
Ġrepro ach
ĠWall ace
Ġexchan ged
Ġpros ody
Pre viously
Ġillust rations
Ġkidna pping
ĠFour th
ĠRh ines
Ġindign ant
Ġult imate
ĠTib et
parent s
Ġtribut aries
Ġmic row
Ġdepos it
Ġflav or
Ġnegot i
repe ats
ĠPier re
Ġmushroom s
ĠTam il
Ġcontrovers y
Ġtut or
Ġoxid ation
Ġenthusi astic
Ġscal p
Ġsubsequ ently
ĠLl oyd
Dun no
ĠHen ri
Jon athan
Ġsab ot
ĠCLO S
ĠMap le
ĠAF TER
ĠTreat y
Ġraz or
Ġprobab ility
Ġcorrid or
Ġdw elt
Ġpretti est
0 8
0 90
; /
B uy
C am
E xt
G U
G ar
J UST
K ind
L in
M ill
N ight
N ine
R ub
S aid
S ukie
T a
T ill
W omen
c oo
c ulation
c inda
d oo
f i
f amily
i ago
j in
k un
o il
p i
p ay
p enguin
r ot
t or
t est
t geme
w orm
Ã ¸
Ġt akin
Ġa no
in ery
in burgh
Ġs ar
it os
Ġc ouncillor
Ġm r
Ġd ime
or ity
Ġp od
Ġp ensions
Ġp enguins
as is
Ġin doors
Ġh ose
Ġh ugging
ic ial
ke rel
Ġre vel
Ġfor cing
se ud
am ine
ent in
ĠT ampa
st ro
ĠS ep
ro e
ith uan
ĠM ut
ĠM ang
ĠM ans
all ow
ĠC reat
ĠC inc
ĠC Ã©sar
Ġwh ites
ill ings
ĠB right
ĠB anks
ĠH ast
th ought
Ġso b
ĠP ied
ge nder
ĠD om
Ġr g
Ġr owing
Ġout come
Ġde fect
ĠJ ungle
ĠF u
ĠG y
ĠG ib
ĠL adies
ĠR aven
Ġsu ited
ĠN ar
ĠN adeshiko
Ġsp ed
Ġsp ears
ap ore
-- âĢĿ
Ġman aging
ag n
Ġpro ves
Ġbo ing
ove l
Ġro be
Ġro bb
ĠK or
ĠK ids
Ġbl ades
ĠU lt
ĠU EF
ho b
pl acement
Ġco con
ci als
Ġpre st
AN GE
Ġgu ided
ĠV OT
Ġsha bby
Ġhel m
ĠY ellow
Ġcr ater
ult s
Ġel astic
inn ati
ug hes
ĠMar vel
Ġcol onies
ĠAl z
Ġhear th
Ġ18 00
Ġmar rying
ĠDe ad
ĠEd inburgh
Ġtri als
OR N
ĠGr ay
Ġsub du
Ġsub div
ĠGod d
ĠNo ah
ĠBe ck
ĠBe cker
Ġext rem
gs on
Ġgrand daughter
Ġsat ur
min al
ik h
ĠRe verend
For give
Ġdef ine
TER S
ĠMag ic
ĠMag azine
Ġpat ent
ĠIN TO
ĠX II
lo at
hold ers
ĠTr uman
ĠCap itol
Ġstat ues
Ġorgan ize
reed om
Ġdisapp ro
ĠTe acher
ĠAb i
ĠPat ton
ĠPat ricia
Ġang les
ĠRic o
Ġdecl aration
Ġcompet itions
Ġbud s
Ġvers es
Ġmass acre
wr itten
Ġintro duc
ĠMad rid
Ġthreat en
Ġprocess es
Ġninet eenth
Ne ed
Ġpath s
Ġjoy fully
Ġow es
Ġfashion ed
Ġmud dy
uten berg
Ġtravel ers
Ġinf ant
ĠMont enegro
Ġlower ing
Ġgro cery
Ġpred icted
Ġmo aning
ĠScot ty
ĠSus ie
Ġtim ing
ĠSun n
ĠBur g
Ġchampions hips
dro ps
ĠArab ian
ĠÃ ¢
talk s
Ġpant ed
ĠFil ip
Ġtechn ically
ĠPan jab
ĠDE AR
Ġsympat hetic
Ġjealous y
Ġcris p
Ġdecor ated
ĠStud ies
ĠHind i
Ġdisappear ance
Ġjoint s
ĠVis hal
Ġappeal ed
Ġtox in
Ġdough nut
Ġchuck led
ĠPot ato
anim als
Ġvolunte ered
ĠLeon ard
Ġorganis ations
ĠMerc ury
Ġhoriz ont
uls ive
ĠEnd ers
Ġpanc ake
Ġratt ling
Ġing red
Ġvel vet
Ġsulf ate
ĠJas per
Ġacknow ledge
Deb bie
ĠFif i
Ġsoo thing
Ġcontem porary
Ġrect angle
Ġpige ons
intellig ible
ĠSponge bob
Ġpsycho an
Ġnood les
Ġsimultane ously
Ġketch up
Ġvigor ously
Ġartific ial
gag aa
ĠTres ham
Ġbungal ow
ĠCinc innati
ĠUEF A
8 00
9 3
A sh
B all
C la
C ontin
C opy
D ig
F ish
H or
H ay
M em
R om
R IST
S n
S en
S har
S pecial
V ic
b uck
b ark
c ade
d ong
e ast
f an
f act
h iss
l ies
l orn
l ene
l iga
m ese
n ant
o key
s hed
t ons
Â Ń
Ġa z
Ġa uber
in ch
in stein
Ġd ashing
Ġf ag
Ġf iance
Ġf ainted
Ġy yy
Ġg ull
Ġg arrison
Ġl umber
Ġl ousy
as g
no s
ĠI X
ĠI da
Ġth ud
Ġno is
Ġe f
Ġwe eping
ac a
Ġre app
ri ans
ĠT ex
ĠS it
ĠS ri
Ġk ar
Ġk ah
ĠM ind
ĠM asters
ĠA in
ĠA ROUND
all ing
ĠC APTAIN
Ġan ts
Ġat omic
ĠB iels
ĠH um
ĠH OL
Ġare na
un ge
ĠP icture
ĠD L
ĠD oor
Ġr ay
Ġr ation
Ġsh illings
el ujah
ĠW arr
ĠG host
ĠL ux
est yle
ĠR aw
Ġv ows
ick ory
Ġus age
Ġpro secution
Ġint ol
Ġbo b
Ġcl utch
Ġbl iss
act ed
Ġco arse
Ġneed ing
ress ive
Ġsc ales
cl iffe
Ġdis o
oc ation
oll ies
Ġsha dy
aw right
ĠCh ron
Ġra iny
Ġche ery
ĠĠĠĠĠĠĠĠ ĠĠĠ
rent ly
und ay
Ġgl itter
ds hi
atter s
Ġcol oured
gr aduate
ĠAl cinda
br ook
Ġreal ised
Ġreal istic
Ġreal izing
Ġreg ain
az ar
Ġchar ter
Ġchar ging
ĠTHE IR
bo ing
oor ay
unt il
ange l
ĠAr d
ĠWhat ever
Ġdec ades
Ġwind y
Ġsort ing
Ġsk irts
ĠDe ep
ĠDe idre
Ġind ifferent
ĠGr acie
ĠGer da
Ġass ented
Ġsub way
Ġmet als
Ġkid ney
Ġhot els
ĠBe ij
ĠCl are
ĠZ ach
Ġcur ls
Ġinc umbent
20 15
zz a
Ġlay s
Ġjo ys
ĠTH AN
iam eter
ĠLe ft
ĠSc ale
gue z
che ek
Ġreport ing
Ġband ages
Ġcommun es
ĠNorth west
urs ed
Ch ic
ĠSh ould
Ġsnow y
rit es
Ġlearn s
Ġval entine
Ġwhis kers
onel iness
Ġcompet itive
Ġrespect able
Ġspace craft
Ġfeed s
Ġeast ward
Ġpers pect
Ġhy mns
Ġcouncil s
ĠQue bec
four teen
Sp ot
sn iff
Ġprocess ing
vocal ises
Ġcult ures
Ġur ge
ĠBra hm
Ġmer it
Ġoccur rence
200 4
Ġphys ic
Ġinflu ences
keep ing
ĠSen ior
Ġsurv iving
ĠRE AL
ĠMil fort
ĠMil itary
ĠMarg ry
Ġcircumst ance
Ġafford ed
ĠStan ard
Ġbi ological
ĠTown ship
Cha p
Ġbat hing
ĠTw ilight
Ġhesit ate
Ġpropos ition
ĠPan ama
Ġincred ibly
Ġwire less
Ġmechan ics
ĠDun n
ĠEmm aste
Ġconsult ed
Ġfortun ately
Back ground
Ġelev ation
ĠUnder ground
Ġgle e
Ġexceed ing
ĠStand ing
Ġprospect s
Ġknot s
ĠSC REAM
Ġnit rogen
Ġvolunte ers
ela ide
Ġpeep ed
adad ada
ĠChap el
Ġcorrespond ence
Ã¢ t
Ġanticip ated
Ġindic ating
Ġber ries
cap ital
ĠLeg isl
ĠHorn er
ĠPant hoibi
ĠNaz i
ĠVo ice
Ġcontrovers ial
ĠLyn n
Ġsoph om
Ġunemploy ment
Ġaccus ation
Ġbapt ized
Ġmoder ate
inte rest
Ġrais ins
ieder ik
Ġcertific ate
Ġlect ures
Ġscen ario
Ġpave ment
Ġasc ertain
ĠKend all
ĠParalymp ics
Ġwol ves
Ġtestim ony
ĠPars ons
) "
1 20
A p
A ut
B ook
C y
D ouble
E p
H ye
J ones
M ex
N ic
R oss
S at
T all
W in
b ian
c ra
c rit
d ling
i Ã¡n
l aughter
m ons
m oor
t em
u ana
z ip
he ka
in stead
re nd
re ction
Ġs ly
Ġs arc
Ġs urname
on tain
Ġb atch
Ġb umble
Ġb rigade
is ive
Ġm es
Ġm and
Ġd ada
Ġd usk
ing ham
an on
an an
Ġg oo
Ġg ait
CH A
Ġl icked
Ġl adders
CHI NG
ĠI b
ic eless
et ah
id ad
Ġe ll
ot ch
Ġn ets
se ver
ly de
am ations
Ġdo do
ĠT hy
ĠS uddenly
ĠM ater
ĠM uch
ĠA WAY
Ġse izing
ch t
ĠC her
ĠC ody
ĠC aval
ĠC ebu
ill ance
ĠB enn
ĠB unker
ĠB arker
ĠH in
ĠH ang
ĠH afed
il ation
ra zzo
th ren
ĠP ink
ĠP age
ĠD www
Ġsh ipping
ĠF ollies
ĠG B
ĠG lobe
ig ious
em a
ĠR over
ĠR ifle
ind eer
ĠN ina
ĠN anny
ĠO LD
Ġex ult
Ġover night
Ġcl apped
ĠK it
ĠK ane
ĠK urt
ĠK human
ud ence
Ġbr ushes
Ġgr ub
Ġgr inned
ount ed
Ġam ple
Ġen closed
Ġun believable
ĠV ers
Ġsm oo
Ġcomp romise
Ġsha ve
ĠIn vest
Ġch rom
Ġch ugga
Ġres ort
Ġra gs
Ġcomm ittees
Ġrec ession
Ġrun ner
atter ing
Ġbre w
Ġcle ars
ĠMar low
ĠCHI s
ject ed
bo ats
Ġcons on
Ġinst ances
ĠMOT HER
Ġsub urbs
sha ke
Ġ6 00
Ġext ending
Th ird
Ġgener a
Ġrock y
atur ally
Ġfore most
Ġfree zer
ĠLe gend
âĢĶ âĢĶâĢĿ
Ġ16 0
ĠJack y
Ġpost er
Ġoper ator
Ġsal mon
,-- "
uri ously
Ġrequ ests
Ch uckles
Ġpract icing
Ġcool er
ĠPaul o
Ġstri ps
sp oon
Ġlunch time
ĠEl isa
ĠWh ig
Ġdescri ptions
Ġhospital ity
Ġgas p
Ġmem orial
De rek
Ġhy pot
Re ception
roll ing
Ġbound ed
af ar
Ġspring ing
Ġcru cial
ortun ately
199 5
SE E
Ġcart oons
Ġlog ic
Ġlog ical
ĠMed al
Ġcivil ization
Ġstro de
ĠGeorg ian
Ġir regular
ĠEvery body
ĠBern ice
Ġprogress ive
ĠNight s
Ġwitness ed
ĠĠĠĠĠĠĠĠĠĠĠĠĠĠĠĠĠĠĠĠĠĠĠĠ ĠĠĠ
ĠTw enty
Ġsignific ance
squ eeze
Ġge omet
Ġdrunk en
Ġfier y
Ġconcent rating
sl ide
ĠPop py
Ġcompar ative
ym ph
ĠAny thing
ĠUp on
Sam tgeme
ĠPir ates
Ġmanufact uring
Ġrepro ductive
Ġdrag ons
heim er
Ġvig il
Ġnit rate
ĠDi andra
Ġvirt ue
ĠCorpor al
Ġtramp oline
Ġcooper ation
hur st
ĠPa heka
Ġvoc abulary
Ġdepos ited
ishi ge
Ġsan ct
Girl s
arin en
ĠDef ense
ĠFAT HER
Ġdischar ge
Bra vo
ĠBudd h
Ġquot ation
ĠJen kins
Ġque ens
ĠNak tche
Ġresent ment
Ġoverwhel med
ĠGriff in
GRUN TS
Ġmarvel ous
Ġimprison ed
ĠGand hi
pu ppy
ĠHit ler
Ġperf ume
Marg aret
stret ched
Ġambit ious
Ġpresum ably
Ġinev itable
ĠJol iffe
Honest ly
Ġtel es
Ġbegg ar
RIGH T
ĠSunn yside
' _
0 3
B oo
C ross
D F
F il
F ound
G S
H ur
H aw
H ands
K i
L u
L aw
M ajor
P en
R od
S un
S ol
S ave
S chool
S yl
a ha
a us
b ull
c am
g om
h igher
j or
j ar
l en
m ith
m ouse
n ity
n ames
o atmeal
v on
Ã Ł
he um
in ax
Ġw its
Ġw iser
re p
ha ba
Ġb ould
is ne
Ġc av
Ġm ature
Ġd oodle
Ġf ero
an za
Ġp ac
Ġp ans
Ġl av
le a
le gged
ut er
ac ies
Ġn ug
Ġfor lorn
Ġdo ct
Ġst inky
ĠT han
ĠT ak
ĠS ind
ĠS ag
ĠS CHO
ĠM aug
ĠM ICH
ĠC age
ĠC raw
ĠC inem
Ġnot ices
Ġnot ebook
ĠB orn
ĠH umph
ĠH OUSE
Ġj un
Ġj unction
th ird
ore m
op sy
ĠP and
ĠP ale
ĠP UT
ĠD ane
Ġout stretched
ul ously
Ġde port
Ġpl ums
AT CH
ĠJ es
ĠG rundy
IN S
ess es
ĠL ud
Ġor anges
ĠR af
os er
Ġthem es
ĠN atives
ĠE vel
ĠE lect
Ġcon ting
Ġex ternal
Ġman ly
Ġ19 12
AR O
Ġpe g
ĠK h
ĠK ill
ish ly
Ġaf loat
onna ise
irst en
Ġco gn
Ġneed les
ach ine
Ġsc ant
ĠV iv
but ton
Ġch ug
Ġcr adle
Ġsl ower
Ġlea ked
anc ouver
Ġhar bor
bab ies
ĠMar ino
Ġwait er
Ġhold er
vent een
Ġside ways
sh ort
Ġrel ates
Ġrel ating
stand s
Ġfoot age
Ġdec iding
Ġblack s
Ġtri pp
Ġsub mar
ced es
Ġexpl ode
ĠSo ft
Ã¡ nd
Ġbar be
oops ie
Ġrock ets
Ġsweet est
Ġopp ose
oof y
fic ial
ĠCan ute
Ġclass ified
Ġrele ases
ĠX I
lo aded
Ġest e
Ch uck
With in
Ġcop ied
Ġinde x
Ġmis chie
Ġ11 0
Ġang uish
Ġdi apers
rem oves
Ġdefe nder
ĠSha dow
Ġsad ness
Ġauthor ized
John ny
Ġimag inary
Ġgen re
Ġvict ories
Ġrespect ively
Ġrepresent ation
Ġarr ondissement
Cl ass
Ġrepe ats
Ġaff ili
str ange
field er
Ġfool s
Ġfool ing
Ġcrit ique
ĠQu ant
Ġspl ashing
Ġskin ny
Ġund ressed
ĠEm il
Ġtou red
ĠSaturday s
200 1
rab in
Ġclock s
Ġaud ition
vi ation
ĠSant iago
Ġcelebr ating
Ġhonor ary
Ġmut ual
Ġmut tering
Ġtun nels
Ġgro ve
Ġfold s
Ġhomes ick
ĠMore no
Ġfuss es
Ġterror ist
Ġpant ry
ĠEli jah
Ġinvent ion
ĠMission aries
ĠLight on
Ġlack ing
Ġcontribut ed
ĠDa ily
Ġimit ating
ĠDes pite
ĠFin land
ĠFe ld
Ġchamp agne
rif ied
ĠTor res
yy y
Ġexplos ive
Ġgreet ing
ĠWall is
amm ies
ĠWOR LD
ĠLE ON
Ġreb uilt
Ġwars hips
Ġopt im
Play ing
ĠTall ulah
Ġerr ors
Ġteen ager
Ġevol ved
ĠLast name
Ġawait ed
Ġrecommend ations
Ġswell ing
ĠWes sex
aph ne
Ġtribut e
Ġeffic iency
Ġcolon ists
Ġinfect ions
Lou is
âĻªâĻª âĻª
Ġavo iding
occ o
Ġwob bly
Ġfisher men
Ġdisple asure
ĠOrgan ization
Dave y
Ġhither to
ĠLav inia
Ġnomine e
ĠDill son
Ġrit ual
ĠEth iop
ĠProvin ces
whing es
ĠHAPP EN
opotam us
Ġunwill ing
Ġanten na
Ġmatt ress
Ġcancell ed
ĠAfghan istan
ĠSlo ven
ĠClamp ett
Ġsubdu ed
- .
B rit
B ODY
C ast
D inner
F ight
F ull
H C
H ouse
H annah
I OUS
I magine
J en
L W
L ive
L eg
M onday
O rigin
R ad
U TH
W il
W orld
W oman
b ul
b able
c ab
f ed
f ol
f ollow
f inger
g d
g m
g ans
j un
j asta
p ence
r ar
s hoe
s nap
z ards
Ġ 000
Ġt rench
Ġa int
Ġa ided
in u
Ġw ae
re aches
it ives
Ġb itten
Ġb achelor
Ġm ia
Ġm unch
Ġd anc
Ġd inners
Ġd ynam
Ġd iameter
Ġf uzzy
ed ged
Ġg iv
Ġg ains
as ium
Ġh ub
le ased
Ġha g
Ġbe hold
im o
im bab
ac ial
Ġre arr
se ason
ĠT ol
ĠS K
ĠS U
ĠS ard
ĠS ite
Ġk a
ĠM arty
ĠA ber
and ed
Ġgo ggles
ĠC ond
ĠB ajor
il ocks
un ity
Ġup d
Ġne uro
ĠP rest
ĠD over
ain ting
el in
el ines
ĠW or
Ġout s
ĠF al
ĠL oki
ist le
ĠThe ory
itt ies
ong a
Ġsp ilt
ice cream
Ġex hibit
fe w
Ġbo bble
Ġag encies
Ġer u
Ġ19 11
Ġover fl
Ġcl ums
ne cked
Ġar rog
ĠK rist
ĠK ISS
Ġbr andy
hy a
ĠU l
Ġwhere abouts
act ivity
ĠSt ella
Ġfl own
ren cy
Ġun p
Ġun self
Ġpre fecture
Ġte ased
Ġte aches
Ġwr ought
ĠV ancouver
og ne
Ġcr iter
aw are
Ġra v
Ġdif fer
Ġcomm otion
Ġgl im
ĠFr anz
Ġpol ished
ss h
Ġsw ap
Ġsw ollen
ĠMar vin
Ġacc ursed
Ġreal m
Ġnum bered
Ġyoung sters
Ġair s
Ġpick les
Ġround ed
any body
Ġcons umed
Ġdec ade
Ġinst alled
Ġ4 1
Ġcut ter
Ġeas iest
Ġref urb
Ġsqu aw
Ġexpl oring
ĠCar rie
Ġpresent ing
UN G
ator ial
Ġorder ly
Ġhon oured
Ġsn acks
col ored
ĠLe im
ĠHer stan
Ġbag gage
Ġcup cakes
Ġcreat ive
arch y
Ġpat ches
ĠIN TER
Ex cellent
Ġoper as
ĠComm ons
Ġmad ness
ĠAlex a
Ġtow els
Ġbes ie
Ġburn s
Ġcomfort ing
ode on
ĠWh itt
ĠSha k
Ġvol s
ĠSome one
Ġneighb oring
Ġfeed back
ĠSu z
Ġcommand ing
ĠPer ri
Ġproject ions
Ġbang ed
back s
Ġcrack ing
Ġphot ography
Bl ake
Ġfright ening
ĠGl enn
Miss us
anch oly
Ġ186 9
200 8
Ġallow ance
Ġtemper atures
ĠPort land
Ġearn ings
Ġtowns hip
YOU R
Ġbless ings
Che er
Ġpool s
Ġtext ure
Ed wards
Ġ187 7
ĠCH E
Ġchat ting
Char lotte
Ġscrew s
ĠReg ional
Ġpred ecess
Ġinno cence
ĠSal v
Ġamb assador
hun m
Ġdust y
AA E
UL T
IG N
hoe be
ĠBre ndan
Ġbon net
foot ball
Ġcig ar
Ġmurm ur
ĠShar on
ĠCho ice
Pr ince
Bar bara
ĠShan ti
Ġvig orous
Ġere cted
Ġwebs ites
Ġped est
Ġadvert is
mum bles
ĠMuhammad an
Ġaccommod ate
Ġagric ulture
Ġing en
Quick ly
ĠEngine ering
pow der
Ġdial ogue
Ġsust ained
ĠBea uty
ĠSom me
Ġfab ulous
ĠAdvent ures
imet res
Ġspecim en
ĠLeb anon
Ġbrisk ly
ĠInf antry
Ġetern al
includ e
Ġwaff le
ĠStri ke
ĠBEL IE
ĠCE O
ĠKra k
ĠLAUGH ING
SOPH IA
ĠTAL K
Ġsauc er
ĠOrigin al
Ġpsychiat rist
Ġlugg age
ĠEmb assy
Ġthres hold
ĠVerm ont
Ġelabor ate
ĠSaud i
SEL F
ĠDaven port
Ġmicrow ave
ĠBeij ing
ĠMaug rabin
imbab we
7 9
B ell
B arty
C as
C ons
C ER
D ra
E duc
E va
F ur
G onna
H op
H ush
M ade
P ort
P ING
P ierre
S TER
U ses
W al
c ond
c Ã©
d ose
e xt
f ering
g inning
k la
l isted
m ichael
n n
w onder
x ter
Ġt ended
Ġt rop
Ġt rophy
in ian
Ġw ilt
Ġs ighs
ha y
on gh
it an
is co
Ġp iles
Ġp inned
Ġl s
Ġl ining
no d
ĠI z
ĠI ron
Ġh oe
Ġha vin
et on
Ġth ine
Ġbe ams
Ġbe held
Ġe rect
im ir
im eter
ad vant
Ġre cl
Ġre organ
Ġre indeer
ent ry
ĠT F
ĠT ip
ĠT hings
st own
st ones
ĠS AT
ĠS ig
ĠS ung
ĠS hang
ĠM ale
ĠA hm
ĠA gr
ĠA ges
Ġgo ats
ĠC ell
ĠC row
ĠB end
ĠB ase
ĠB ucking
ĠB urns
ĠH O
il ess
ĠP ont
ĠD ame
Ġr ud
ight ed
ĠJ a
ĠJ oon
ĠJ olly
ĠJ OE
ĠF IND
ĠG oth
ĠG wen
ĠG ardens
han non
ĠL al
ĠR aff
ong s
ive k
ĠE ug
ĠE va
-- '
ĠO WN
ĠO cala
are well
âĢĻ .
Ġover throw
Ġcl uster
Ġro gue
ĠK l
iv or
Ġam er
act ing
Ġhand writing
Ġun ite
Ġyear ling
iz a
iz ers
Ġpr ick
ict ory
Ġdis li
oc ol
IS P
Ġcomp onent
ip op
Ġsl inky
Ġlea pt
Ġra pper
Ġbot bot
Ġatt ent
Ġsupp ressed
bab aa
Ġbre thren
Ġpres chool
ĠAl t
go at
Ġret ail
RA C
ĠInd ies
Ġdel ic
Ġdisc retion
Ã© n
ĠCl iff
Ġstra ps
Ġconf using
ĠFl int
Th ursday
Ġcur ved
Ġcur sed
Ġshort ened
20 14
ĠRe y
Ġpresent ation
fort y
Ġins cription
Ġdef erred
Ġcook s
Ġtrans mit
ĠPr adesh
Ġexam ining
ĠTH REE
Ġpar aly
US ED
Ġstraight en
Ġstraight ened
ĠCol ony
Ġpartic ulars
com p
ĠMan ning
Ġequ ations
rop he
ĠSh rek
ĠWest on
Ġship w
Ġbow ls
ĠPol it
Ġrad iator
Ġdi ab
Ġbull do
cket t
ĠChi lean
Ġcab bage
Hi ya
Ġver anda
Ġtrack ing
Ġrepresent atives
Ġfres hmen
Ġport rait
Re ferences
kin awa
oph ry
ĠKe ys
ST AND
ĠRob bie
Ġcru ise
ĠGl oria
May flower
Ġtax icab
Ġpray ing
Ġbomb ard
ĠRed s
ĠHigh ness
sm ell
sm acks
Ġacqu ire
Ġant ib
Ġpin ched
ĠCr ime
Ġindepend ently
ĠEr nie
ĠSing apore
Ġvac uum
only include
Ġescap ing
Amer ica
Ġfox es
Ġ190 5
Ġshel ves
Ġfuss ing
Ġdepend ent
Ġaim ing
squ eak
Ġmel ancholy
Ġsport ing
Ġminister s
Ġcommer ce
Ġrejo ice
bag s
Ġsorrow s
Ġcontroll ing
Ġpure ly
Ġprec aut
Ġfortun es
dra wn
Ġflood s
Ġrent ed
Ġsubs id
Ġwreck ed
Ġprem ises
Ġunexpected ly
Jean nine
Ġindign antly
Ġvari ations
Ġtribut ary
ĠConst able
Ġstruct ural
Trans port
hero e
Ġprofession ally
Ġstroll ed
Ġinher ited
Ġelim inated
ĠFuk ushima
Ġbri be
Ġcher ries
Ġassass ination
GAS PS
Ġcul prit
Ġunemploy ed
Ġmini ature
Ġoverse as
Ġdorm itory
Ġmead ow
Ġresear cher
ĠRober ts
ĠYan kee
Ġalumin ium
ĠCecil ia
Ġshrim p
Ġgrocer ies
Cra zy
Ġpia zza
ĠRect or
hipp o
Ġabst ract
Ġenvelop es
ĠNC AA
Arct odus
ĠAur ich
Ġcorp se
Ġalgorith m
Ġdung are
ĠWOM AN
ĠSpani ards
ĠProdu ctions
ĠKaly al
ĠBiels ki
Ġperspect ive
Samtgeme inde
! [
9 5
C AN
C ooper
D Y
E le
F air
G ord
J ethro
K ids
L ola
P ir
P ur
P ig
S A
S F
S W
S in
T ed
V ENT
_ ,--
b il
b ard
b ump
b ones
c ore
c ars
c aster
d arling
e ur
f al
f ro
h iccups
l ost
l eness
n ings
p unk
p ushes
r oot
v ised
Ġt ac
Ġt umbling
Ġa venue
re na
on er
Ġb unn
nd on
is le
Ġc ello
Ġd re
en ough
Ġp ope
Ġp aces
Ġp seud
Ġg ene
Ġl oos
Ġl umps
Ġhe aps
Ġh iccups
Ġha iled
et ition
ow ler
Ġre pr
ot to
Ġn ie
Ġfor s
Ġfor ci
am ble
Ġst unned
ĠT ut
ĠT ab
ĠT ob
ĠT ouch
out e
ĠS V
ĠS et
ĠS ty
ĠS old
ĠM oor
ĠA er
ĠA isne
ch io
ĠC rest
ĠC over
ĠC ris
ĠC ox
ĠB ach
ĠH ughes
ant ed
un happy
Ġj ammies
Ġup date
ĠP ansy
our ces
ĠD ot
ĠD AR
Ġr ally
Ġr ises
Ġsh uff
Ġsh rew
ĠW inn
Ġsa p
ĠF ig
ĠF lying
ĠG L
ĠG ail
ĠG aines
ĠL ed
ĠL ocal
na kes
Ġor d
ĠR uff
ĠR iding
ĠN y
ĠN on
res a
ak o
Ġv a
Ġv olley
Ġv ulnerable
ĠO blast
ber n
ous ing
we ek
Ġcl op
Ġcl ause
Ġar se
Ġtr aded
ĠK ey
ĠK IND
pe x
ount ered
pl astic
Ġday care
Ġday break
ren s
wn ing
Ġsc out
ĠV iew
Ġad min
Ġbefore hand
Ġsha ky
Ġhead long
Ġmust ache
up stairs
aw oh
Ġlast s
ĠUn like
Ġche es
Ġhar p
Ġatt ribut
uc le
Ġtra iling
ss is
Ġhard ware
ĠMar c
Ġmen opause
me red
ĠAl ban
to ast
Ġbro ker
St ory
Ġcons pic
ON Y
ĠEd ge
Ġass umption
ats uki
Ã© t
Ġrep airs
ĠZ orin
ones ome
Ġ7 00
ĠCar n
Ġmag ical
20 12
Ġrecord ings
ĠĠĠĠĠĠĠĠĠĠĠĠĠĠĠĠ ĠĠĠ
Ġgovern ors
ĠYOU NG
Ġfif teenth
Ġsn ug
Ġsn ugg
cent ral
ĠTH ING
Ġdat abase
ĠCon vention
CO P
An thony
Ġfast en
Ġap iece
ĠX III
ĠX VI
Ġconc ussion
Ġnational ism
ĠMan ila
Ġvar ied
Ġgold fish
Ġpen insula
ĠGrand father
Ġav iation
Ġsuper hero
ĠDan i
Ġcomfort ed
Ġconsider ations
Ġaccept ing
Ġloc ally
Ġdesign ated
Ġdry er
Ġsell s
Ġlock er
Ġpriv acy
Ġmass age
Ġcard board
Ġinfl ation
Ġobs essed
Ar d
ĠChe er
str ate
ĠDist ributed
ĠSteven s
Pro duced
oly n
ĠEll iot
ĠMac le
Ġpray ed
Ġyouth ful
Ġmir rors
Ġenc ountered
Ġaddress es
ĠLaw yer
Ġaud ible
ĠDO ING
ĠMor rison
Ġtap ing
Ġpound ing
Ġmotor bike
Ġmodel ing
Ġharm ony
Ġappreci ated
Ġfoc uses
ste ady
Ġwhist led
Ġassoci ate
Ġrob ber
Cha mp
Ġfra gr
Ġshel tered
Ġweekend s
squ are
ĠVan essa
ERS ON
Ġcam ps
Ġcomplet ion
Ġconce ived
Ġpoison ous
Ġmeas uring
Te am
sw ings
Ġpursu ing
Ġtransl ation
erg ies
mag net
ĠKenn eth
dra ul
ĠOak land
ĠSA W
Ġreb els
Ġintense ly
Ġtroubles ome
ĠField s
Ġbatt alion
breat hing
Ġdiag ram
Ġdies el
Ġstamp ed
Ġancest or
Ġrefe rences
Ġwrit ings
Int erest
Ġwret ch
Ġgest ures
Child sname
ĠPubl ishers
Ġcryst all
hur ray
mont on
ĠAra bs
ĠGreg ory
oog le
ĠJe opardy
ĠBangl adeshi
Ġanticip ation
Sim on
ĠBu en
ĠTRI BE
ĠNap les
ĠÅ Į
Ġfulf ill
Ġperil ous
ĠSpot ty
ĠRud olph
Ġprosper ous
ĠJose on
Ġaccord ance
ĠRen Ã©
includ ing
ĠBent heim
ĠSemin ole
Ġree f
tract or
Ġrecoll ect
acr ament
ĠmÃŃ ko
lÃ¡ ko
ĠClaud ia
ĠVig il
Ġdesir able
mars en
Ġadap ted
ĠAub rey
jum ma
gom ery
ĠSCHO OL
0 7
7 2
; &
C ent
C onsider
D ar
D ID
D arling
E oi
F re
F ROM
H ank
K A
K a
L ist
M or
P ay
P ot
P ast
P ooja
S no
S av
T OM
T ele
W ay
Y ang
c re
c ookie
d ee
e ither
f rey
f iller
i ated
i kes
p izza
s er
t old
w ig
z aj
Ġ â
Ġ ia
Ġ Ã³
in vestigator
Ġb ind
Ġb ony
is ch
Ġm op
Ġm oons
Ġf ib
Ġf ists
or p
en ched
Ġp ouch
Ġg ee
Ġg rill
Ġl ust
Ġl ime
Ġh ips
ic ism
et ry
Ġbe ck
al ia
Ġno ses
im my
ke red
ot he
ot ape
Ġdo ggies
Ġst ump
ĠT i
ĠT ate
ĠT able
ĠT rain
ĠT ige
st ars
st reet
ĠS z
ĠS ed
ĠS le
ĠS uk
ĠS ugar
ith s
ĠM ong
ĠM OR
ĠM anu
ĠM TV
ĠM AX
ĠA CT
ĠC ov
ĠC old
ĠC rist
ĠC lyde
ur as
ĠB eth
ĠB att
ĠB IG
ĠH es
ĠH AND
ook er
ant in
ant ha
Ġknow ed
ra ight
Ġj ab
Ġshe pherd
Ġso bbed
Ġso bbing
ĠP RE
ĠP orts
ĠD S
Ġr aced
ack ing
Ġout standing
art a
ul ch
ol in
Ġpl edge
ĠG osp
ĠG rey
ig ny
ĠL er
ĠL ear
ĠL ONG
ĠL ithuan
em in
ĠN BA
res den
Ġsp anish
Ġv ag
Ġman ip
Ġint ensity
Ġ19 16
Ġcl er
Ġcl iffs
ne h
He ad
Ġtr ades
Ġtr otted
ĠK hor
add ress
ond a
omet er
Ġgr ind
ĠU SS
be k
Ġco ordin
Ġcar avan
Ġun anim
Ġsc ope
cl in
Ġdis advant
Ġim itation
Ġcomp aring
man y
Ġch ooses
Ġcr ane
let cher
Ġhead aches
Ġsl apped
up iter
Ġrec ru
oss ibly
Ġend less
br ings
uff alo
ger id
ĠTHE SE
Ġwatch man
ĠAr nold
ale b
Ġworld s
Ġtop ics
ĠEd gar
ex actly
cha nd
see ing
Ġcut ters
arr ondissements
Ġsqu id
ĠBe be
Ġword ing
Ġstate ly
Ġcertain ty
Ġgener als
Ġinc orpor
Ġgra vel
ĠBen ny
Ġfro cks
ĠHar bor
bl ank
aim ing
Ġmark ets
ĠPr oof
aur us
Ġexpect ation
ĠHer bert
Ġobject ed
Ġfast est
ls en
Ġpat iently
Ġcross es
ĠMc Queen
Ġdest ined
ID ENT
Ġview ers
Ġsal oon
Ġsal aries
Ġorigin ated
Ġpract iced
Ġcost umes
Ġworth less
Ġval iant
sp oken
Ġdefe ating
Ġexpress ions
ĠTo gether
Ġcapt ors
Ġcollect ions
Ġfres hman
Ġregard less
Ġextra vag
ĠNe ed
ĠNe ither
Ġep ic
ĠMad emoiselle
Ġpossib ilities
LA CK
VER N
Ġhero in
199 0
199 3
Ġbomb ers
AK S
Ġemploy ers
ĠLa iren
Ġtong ues
Ġshad es
Ġstro ve
Ġgro an
Ã¤ r
Ġbod ily
Ġ190 9
ĠUN ESCO
ĠBO YS
ĠArt uro
Ġbump y
AB LE
Ġtransport ation
Ġtoss es
ĠSa arinen
ĠDes ert
Ġnic kel
Ġpursu ers
Ġtransl ator
ĠRod ney
ĠBook s
Ġscare crow
Ġdescend ants
ATION S
Ġtiss ues
Ġpsych ology
Ġconsult ant
comm un
Ġ183 2
ĠConfeder acy
Ġgri zz
Ġguid elines
ĠRus so
ĠAccording ly
Ġillust rated
haw ks
anim al
ĠMir pur
ĠDave y
Ġdece ased
Ġdece ived
Ġpartners hip
Ġchallen ged
Ġpy ramid
ĠChap ter
Rob in
Ġgrie ved
Ġgraph ics
Bo ys
ĠHugh ie
Ġalt ar
def initely
Ġnegot iate
Ġfert il
ĠPil ot
Ġbos om
OUGH T
Ġreluct antly
Ġstrengthen ed
Ġprosper ity
Ġembr ace
Ġconfront ed
Fif ty
ĠJohan n
PA U
ĠLeices ter
ĠIndepend ent
Ġwaff les
ICT OR
Ġsurve illance
Ġportray ed
GB T
ĠHistor ic
Ġtreacher y
Ġbloss om
ĠKaz akh
ĠArmen ian
Ġtort ured
ĠYE ARS
ĠMidd leton
Ġjewel ry
ĠCir c
ĠSwe yn
ĠSupp orting
Ġmour ning
Ġdiscom fort
Ġki wi
ĠMunicip ality
Ġvamp ire
Bat man
Ġstam mered
ĠBrew ster
ĠFollow ing
ĠNapole on
ĠShell ey
Proper ties
Pant hoibi
ĠSeb ast
ĠGon z
Ġrobb ers
Ġfero cious
ĠHumph rey
Ġunself ish
Ġcriter ia
' "
0 1
0 30
A uthor
B u
C ind
C rit
D ist
D og
G www
H umpty
I r
J ump
K ath
K uc
L ind
L ead
N isha
N onsense
O OD
O ICE
P IR
R ather
R ussian
S hi
S www
S pr
T F
T CA
W F
W anna
b as
b ows
e ggs
f un
f ruit
j am
j our
j andro
l iffe
m c
m ast
m ies
m ath
m ister
m ammy
o ine
p end
q bal
r ance
u ity
w ave
w ald
w ords
he alth
in th
Ġs neezes
Ġs omers
on o
it ic
it ate
is ers
Ġm oose
Ġo me
Ġd rying
es h
en y
en ig
Ġp am
Ġp ent
Ġp est
Ġg ums
Ġl aser
at io
ĠI ove
Ġh ugged
Ġon ward
id ated
al ian
ut ory
Ġno o
Ġe uro
ot ine
Ġst unt
ĠT on
ĠT RO
ĠT aka
st able
ĠS N
ĠS or
ĠS ho
ĠS ok
ĠS ey
ĠS aints
ith metic
ĠM A
her ic
ĠA ren
ĠA mp
ch u
ch ips
Ġan ne
Ġwh it
ĠH D
ĠH uh
ĠH ob
ĠH app
ell ation
Ġj hnf
Ġso fter
ĠP aw
ĠP aper
ĠP sy
ĠD w
ĠD ob
ĠD isc
ĠD yeisha
Ġr heum
Ġsh ifts
ĠW hether
ul atory
Ġde ment
ĠJ ava
ĠF ly
est ead
ĠThe o
ĠN ortheast
ĠN atural
Ġcom a
Ġcom fy
ast ics
ĠE P
ĠO g
ĠO ften
ĠO kinawa
ag ging
au e
Ġag g
Ġag rees
ace ous
He art
Ġplay group
Ġpe ering
Ġpe eping
ĠK ind
Ġaf fl
yes terday
Ġpart is
ru ly
Ġun in
Ġun ification
Ġpre acher
cl ip
cl imb
Ġdis qual
ub ber
Ġunder wear
Ġsha ck
Ġch ol
Ġapp ar
ock et
Ġsl umber
Ġstill ness
Ġrec re
Ġatt ach
Ġlife boat
Ġgl are
she ll
ss i
ph us
ĠMar in
Ġ202 4
uff ed
Ġ18 90
ange red
Ġwind mill
Ġpop ping
ĠDe V
Ġtri o
OR S
OR RY
by n
Ġsub stit
ĠTh irty
Ġdar lin
Ġinter val
aj i
ered ith
Ġsqu eals
ĠBe yond
Ġsent in
EN E
Ġcur l
Ġgener ously
Ġgrand children
ĠAt hens
Ġbear ings
Ġem ail
ounc y
ĠPr ussian
Ġexpect ations
CO M
Ġfavor able
Ġobject ions
Ġpat ri
Ġbra ves
Ġrele asing
Ġmot to
fess ional
ĠWar ford
Ġstraight forward
rat ic
ĠTr ue
Ġinform ant
Ġsight s
Ġprop he
Ġprop osing
Ġstri pped
Ġbelong ings
Ġadm ission
ĠEl vis
ĠSha h
Ġbright ness
Ġpush chair
Ġloc omot
Ġvol untary
Ġincre asingly
Ġcompl iments
Ġsmell y
Ġtor ped
Ġhost s
Ġscar let
Ġconvers ion
Ġhy per
Ġsmile y
back ground
ĠQu est
ĠBill board
ĠGl adys
Ġtrad er
Ġtrad ers
AK ES
ĠRed ding
200 9
Ġsusp ense
Ġchem ist
Ġble nd
Ġjoy ful
Gu ard
Never theless
vi Äĩ
ĠBel gian
Ġblind s
ĠJo jasta
Ġnomin ations
Ġscrew ing
Gl ad
ĠHE AD
Ġyell s
Ġaware ness
Ġrespond s
rick et
ĠTra ining
ĠAnt i
Ġrob in
Ġ188 2
Ġinterview ed
ĠTim othy
Ġpant ies
Ġpossess ions
Ġshr ink
Ġtransport s
ĠFre ya
ĠRec ord
ĠKim ber
ĠFar mer
Ġpregn ancy
Ġdeliver ing
Ġrang es
ĠFire man
Ġlin eman
Ġtender ly
Nat alie
ĠPers ians
ĠXX X
Ġrac ial
ĠBir thday
Ġspin ach
Ġthrill ing
Ġlegend ary
Ġbroadcast ing
bot tom
ĠGe off
Des pite
Under stand
Ġvirt ually
Ġdisturb ing
Ġowners hip
lar ge
Bern ice
Ġconven ience
Ġhamb urgers
ĠTre vor
Ġdign ified
Ġvoc als
ĠProt heroe
Ġabund ance
Ġdeliber ate
ĠEle ven
Ġliberal ism
Ġcust ard
Ġdemonstr ate
Ġstab bed
ĠCob b
Ġfert ile
Ġadopt ion
Ġcompre hend
Ġascend ed
Ġdolph ins
Ġmanuscript s
Ġsacrific ed
Ġtact ics
ĠFE EL
ĠDomin ican
Ġdisple ased
ĠKha mba
cough ing
cor rect
ĠZen ana
Ġunsuccess ful
Ġsnee ze
Aust ral
kn ife
Ġwist fully
Ġunre ason
Ġassail ants
sees aw
shrie ks
Ġcarpent er
anth rop
Ġmonaster y
Ġmamm als
ĠCun liffe
ĠMalays ia
ĠBundes liga
Ġprelim inary
Ġingred ients
ĠBajor um
Educ ation
acrament o
clin ician
Kuc zaj
' ?"
8 6
9 4
A cc
B RA
C le
C ry
E mma
G ER
H ING
J umbo
L y
L ow
L ots
M T
M odern
R ing
R ESS
T ax
T rying
V en
V EL
b ys
c z
d ance
g ah
g old
k ar
m r
m akers
p ox
r iding
s ister
t rochee
v ie
w u
w uh
y oyo
Ä Ľ
ģ Ħ
Ġt ant
Ġt ins
Ġt ying
Ġt ipped
Ġa venge
Ġthe orem
Ġw ah
re ro
er ver
er ne
it he
Ġb am
Ġb ree
Ġb aking
is ley
Ġc ork
Ġc aves
Ġm oust
Ġm uzzle
Ġo min
Ġd iving
hat e
Ġp ian
Ġp als
Ġl oneliness
ĠI ike
le igh
ut ure
Ġre n
Ġre igned
Ġn ests
Ġn ucle
ri z
Ġdo key
Ġst oop
ĠT ory
ĠT inky
ĠT RY
ĠS ud
ĠS TE
ĠS acco
Ġk ung
ro c
ĠM eth
ĠM aid
Ġse gment
ĠC ut
ĠC uth
ĠC oming
ĠC AME
ĠB ok
ĠB ECAUSE
ĠH il
ĠH unt
ra its
Ġcan ce
ore y
op er
ĠP ingu
ĠD J
ĠD ouble
ĠD ixon
Ġr ating
Ġr hin
Ġsh illing
Ġout put
Ġde emed
Ġpl ump
Ġpl ague
ĠJ ur
ĠF iona
ĠG ob
IN T
ig oo
ĠL t
ĠL ucky
ĠL GBT
em ale
ist icated
ĠR ange
ĠR www
os he
ĠN ear
Ġsp iders
ĠE un
ĠE min
Ġv irgin
Ġman ages
Ġpro hib
Ġpro secut
Ġover take
Ġcl aw
Ġoff spring
Ġtr aced
ĠK www
ĠK enny
hy la
Ġam mon
ang ular
Ġpo kes
AN N
Ġsc ooter
cl amation
day s
ĠV ern
Ġim pe
ĠShe l
ĠIn formation
ip ing
Ġcr unch
TE LL
ign Ã©
Ġel oqu
Ġ3 60
Ġpres cription
Ġsw ore
ĠMar se
vel s
de ad
ĠAl mighty
ister t
Ġ18 12
Ġbest ow
Ġyoung ster
Ġsound ing
Ġcons erv
Ġcons ented
form ers
ĠEd monton
Ġfire truck
ex pl
Ġsub tle
Ġsub tropical
Ġinv ade
When ever
ina e
Ġland mark
Ġhair cut
Ġcoll apsed
Ġple a
ĠSp encer
ĠBart lett
over ing
Ġins piration
cri be
Ġsn eaking
cent ury
itc hell
Ġsoft ened
Ġspecial ist
Ġdevelop ments
Ġdoub led
uri a
Ġorgan ised
Ġexcl usive
Ġexcl usively
Ġdirect ing
Ġcal culation
Ġjack ets
would n
ĠGrand dad
Ġpublic ation
Ġwild erness
Ġtem p
Ġprodu ctions
Ġstri ving
Ġrad ical
ĠAf rik
Ġver bs
ĠMal ay
ĠSu ppose
ĠLuc a
Ġmach inery
Ġbene f
Ġlength s
Ġpers ist
Ġdiscuss ions
roll er
Ġcrack s
ĠAre na
Ġsna ils
Car ry
ĠChe v
Ġtend s
Ġspoon ful
ivid ual
Ġident ification
Ġund e
ĠHelen a
ĠMac Kenzie
Ġreact ive
Ã¼ h
Ġthick et
Ġoccup ants
Ġimpro ving
Ġbedroom s
asc ot
Ġfund amental
Ġtext s
Ġinf inite
Ġdemand ing
Ġ187 9
Ġscr ut
Ġcontact ed
Ġbudget s
ĠCr ash
Ġcivil ized
Ġheaven ly
ĠSim pson
ĠFranc o
Ġadminist ered
Ġescap es
Ġqual ify
Ġ190 4
ĠBur mese
Other s
ĠVan marsen
ĠTim my
ĠEmp ress
En ter
Ġinstru ct
Ġhabit ats
Ġrank ing
Ġcontribut ions
ĠĠĠĠĠĠĠĠĠĠĠĠĠĠĠĠĠĠĠĠĠĠĠĠĠĠĠĠĠĠĠĠ ĠĠĠ
Ġcandid acy
quar ium
cod iles
Ġplatform s
PE OPLE
Ġben ches
ĠCON F
Ġhelicop ters
ĠCOM M
Ġlegend s
ĠBas in
Ġsales man
Ġcalcul ate
Ġcalcul ations
Ġwip ing
Ġprompt ed
ĠEv il
Ġrev ised
Comm ander
GR F
Ġpist ols
Ġdrift ing
Ġconfident ial
Co ach
ĠMerrim ans
Ġneighbour ing
Ġpeak ed
Ġretreat ed
Ġbuzz ing
Stand ing
Ġperman ently
ĠAgain st
ĠHaut s
ĠSocial ist
Ġtum or
ĠWork ers
Ġlegisl ation
Ġencourage ment
Ġevac uated
Ġcorpor ate
Ġvel ocity
ĠAtt orney
ĠSerb ian
Ġcasual ties
ĠCro ckett
Lo ire
Mel issa
Ġtransform ed
Str ange
Ġcorre ction
ĠRain bow
Ġwhirl ed
Ġenthusi ast
Ġvary ing
Ġcondem ned
Add ons
Ġunlock ed
Ġcultiv ated
Ġprev ailed
Ġdiplom at
Laugh ing
Jenn ie
Ġempt ied
Josh ua
ĠDig ital
Ġphenomen on
Ġjur is
Ġinfer ior
Ġacknowled ged
Ġairl ine
Ġglo be
Ġantagon ist
Ġclergy man
Ġtorto ise
Ġcurric ulum
Joy ce
ĠLank a
ĠHast ings
ĠPied mont
Ġgiv in
Ġantib iot
Ġshrew d
ĠPorts mouth
0 2
0 9
8 8
A EL
C ookie
E st
L iving
L ucky
N ELL
N oddy
R oman
S I
S k
S ign
S unday
T ook
X T
b ill
b est
b aseball
b ouncy
c alls
d amn
f air
f ires
g ence
h ino
j ohn
k at
l our
o ir
p are
p ark
p enny
s peed
t ap
x ious
Ã ¬
â ģĦ
Ġ 00
Ġ Ã¡
Ġs ip
ha k
Ġd otted
Ġf ooth
or able
Ġp ry
Ġp ence
Ġg hast
as hy
no m
at isf
Ġhe al
Ġh u
le vel
ic as
ic able
ld ow
Ġe i
Ġwe ighs
ad illo
ot te
ot ox
Ġn ort
Ġn ought
Ġn uis
ion ed
ion eer
Ġdo om
ĠT een
ĠT uk
ĠT rophy
st rom
ĠS ell
ĠS URE
ith ium
ĠM S
ĠM am
ĠM end
ĠM ON
ĠM andy
ĠM onsieur
ĠA way
Ġse amen
ch ip
ĠC ong
ĠC LE
ĠC ode
ĠC IA
Ġas pir
ur st
Ġwh ir
ĠB ened
ĠB aboo
ĠB uzz
ĠB eau
ĠB adu
ĠH ak
ant ing
il in
ĠP ay
ĠP AR
ĠP att
Ġsh oo
Ġsh iver
ĠW ELL
ĠW ITNESS
AT ING
ĠF uck
ĠF AM
ĠF LY
han ts
ĠL ief
est ant
ĠR ivers
ĠN it
Ġhere by
own ed
Ġsp out
ĠE sc
Ġv om
Ġv owed
Ġman e
ag uh
Ġint act
Ġint ending
ous se
Ġput tin
Ġar chae
Ġar ithmetic
add ington
Ġgr unts
Ġen jo
pl aced
ĠSt ars
ĠSt rait
Ġfl aming
ru cture
Ġun pack
AN ING
Ġsc ram
Ġsc reens
cl ub
ĠV ir
Ġunder taking
Ġdoing s
Ġper plex
ip ers
Ġch ina
Ġapp endix
Ġgreat ness
Ġstart ling
Ġlast ing
Ġra ke
Ġmin eral
Ġend ured
li hood
Ġfin s
ĠBr an
Ġcle arer
Ġacc um
Ġkne eling
Ġreg ained
Ġreg ulations
ush u
Ġwar med
ween ies
Ġsix teenth
Ġround about
Er in
ener y
Ġfoot prints
pr us
ĠThere sa
Ġblack smith
Ġi amb
ĠGr ammar
Ġass ignment
Ġass uming
Ġfire men
good ness
Ġmet ap
Ġinter pre
Ġinter course
Ġsqu ashed
Ġsign ifies
ĠCl oth
Ġhair s
Ġcent ers
Ġsy rup
Ġexc av
ĠCount ess
ĠFl ower
Ġcur ling
Ġcontin ental
ĠCar men
Ġgrand parents
min ent
RE T
olly wood
Ġed ited
fl at
Al ready
Ã¡ m
zz z
Ġrepl acing
Ġdef iance
RI L
cri ber
Ġhon ors
AP S
ĠSte wart
Ġmod ified
Ġconst ra
Ġbab bling
Ġda res
Ġve t
Ġz ipper
ging er
Ġ12 8
box es
Ġleg ally
ÃŃ k
Ġesc al
AL S
Ġshut s
din and
ĠMin or
Ġprotect ive
ĠPaul a
ĠBrad shaw
sp eak
sp aghetti
Ġproduc ers
Ġwhis ky
Ġneck s
has hi
ĠPresident ial
gu ys
Un like
Ġjud ging
Ġhost ages
ĠLord s
Ġconne ctions
Ġfool ed
ĠDor chester
ĠGl obal
ĠGl asg
ĠColl ins
Ġwheel chair
Ġmir th
ION S
Ġeconom ist
Ġrelig ions
Ġmedic ation
ĠJul ius
Ġmotion ed
Ġow ls
Ġfashion able
ĠMer cedes
ĠMont gomery
ĠSid ney
Ġrom an
Ġgro ans
ĠGreen e
Sc rew
ĠRepublic ans
ĠJer ome
Ġfurn ish
Ġsquee zed
Ġqual ifying
Ġ188 1
Ġsplend or
ellig ence
Ġdism iss
Ã± a
Ġdim ension
Com plete
llen ge
Ġcompos ite
Ġprotest ing
Ġapolog ies
Te acher
found er
found ed
Ġlin en
Ġwise ly
Ġmole cular
Ġlink s
Ġadmir al
ez vous
Ġgrat ified
ĠTan ishige
ĠAS K
ĠShan non
Ġstout ly
ĠCont est
Ġroast ed
ĠRh ine
ĠRh ode
Ġquant ities
ĠVill ars
Ġrecommend ation
Ġfasc inated
ĠDeb orah
Ġscrap ing
ĠLy on
ĠRevolution ary
ĠRoll o
Ġgraph ic
uls ion
TEN TS
Ġrum ors
ĠSpring field
ĠPur die
Ġsurf aces
Ġginger bread
Ġsimpl er
Ġmanufacture rs
Ġber th
ĠOFF IC
Ġinfect ed
repe ated
Ġrack et
Ġcasual ty
Ġshud dered
ĠMiy ama
ĠPH ONE
Ġgent es
Ġadvis or
Ġmoist ure
ĠFern ando
ĠTes co
ĠSof ÃŃa
Ġling ered
Ġvine gar
Att ention
ĠEconom ic
Tot al
Di andra
Ġware house
Ġvit amin
ĠPalest ine
Ġprolong ed
iche ver
Ġcarn ival
Def initely
ĠJama ica
Ġacquis ition
ĠGem ma
ĠBartol ini
ĠLex ington
hung ry
iven ess
Prepar ation
Ġdiso bey
ĠEvel ina
ĠBELIE VE
draul ic
ĠProof reading
ĠGlasg ow
" .]
. ?
9 6
B aker
C old
C DP
D one
E www
F ig
G ab
H m
H ung
H AL
H AVE
M X
N on
P O
S ant
S qu
U sa
Y up
_ :
b ase
d un
d em
d ark
d ese
g ang
g abby
h ook
i age
m ain
m ess
m uh
m ile
n one
n ear
n ineteen
o a
p il
p ignan
r one
r ative
t reat
t ooth
v ill
v ance
v ald
Ã ¯
Ġ ].
Ġa ux
Ġa irlines
Ġw ick
re ars
Ġs ciences
ha ge
it tering
Ġb ats
Ġb umps
Ġc ens
Ġm ould
Ġm int
Ġo t
Ġo op
Ġd ys
Ġf ath
Ġf ern
Ġf ences
ed uc
en ch
Ġg iggles
Ġg ifted
Ġl onesome
as u
at hed
om o
ĠI vy
ĠI byn
Ġh uts
ay ay
Ġbe ak
ut ched
ut tered
Ġno stri
ot ton
am on
am ple
ĠT R
ĠT us
ĠT ul
ĠS L
ĠS r
ĠS aw
ĠM ond
ĠM umb
ĠM OM
ĠM ammy
ĠA ch
ĠA qu
ĠA ires
ĠA aron
ĠC ase
ĠC ulture
ĠC ARE
Ġat tain
Ġwh ine
ĠB U
ĠB amb
ĠB rig
ĠH ait
ell ows
ra a
Ġher bs
Ġthere in
Ġmy st
ĠP ack
ĠP au
ĠP Ã©
rom ag
our ce
ĠD orn
ĠD ub
ĠD EC
ĠD resden
ab elle
Ġsh oved
ĠW ings
ink les
Ġab ode
Ġde w
Ġpl unge
ĠJ ove
ĠJ UD
ĠF ish
ĠF ried
ĠF OUR
ĠF actory
ĠG ay
ĠG ates
ig ible
ĠL il
Ġal iens
ĠR anger
ĠN ad
Ġman kind
Ġthen ce
ag re
Ġpro c
Ġpro x
Ġpro ven
ear ance
ĠHe ather
Ġcl unk
ne ider
ne enaw
Ġar rears
Ġro ds
Ġbl ooming
Ġbr im
Ġbr ood
ĠU b
ho ly
be en
Ġco effic
ov iÄĩ
per fect
Ġfl an
Ġfl ap
Ġfl ux
Ġpre fers
ool s
Ġpr isons
Ġdis respect
Ġwr inkled
ĠV a
ĠV ivek
Ġad ject
Ġsm ashing
Ġsm oked
ens ie
Ġnew com
Ġbook ed
Ġbu oy
Ġsl ur
Ġsl ime
Ġsl ices
land ers
Ġend angered
ee red
Ġwater fall
Ġwater melon
Ġpol o
Ġball ot
Ġmon k
ph ony
Ġfun nel
Ġpret tier
ĠCHI LD
ĠCHI EF
ES BY
ĠAl am
br is
br id
Ġreg ulation
Ġreg ulator
ĠBut ler
sh outing
eb ae
Ġmar ine
did ldow
Ġri pe
Ġmus cular
Ġpop ulated
Ġtri ple
Ġpict ured
Ġinter section
ĠCl ues
Ġhope ful
du ce
EN NY
Ġexc used
Ġexc urs
Ġstra ining
ĠFl ossy
Ġcat ast
ĠRe ed
UN I
Ġeng ra
ept une
ator ies
ĠBl itz
ĠPro f
ĠLe eds
ĠBar ing
Ġpar ap
Ġcreat or
ĠPe pper
Ġpat ting
ĠGu ang
che t
uk a
Ġcommun ications
tom ato
Ġdest ructive
ĠTr ack
ÃŃ s
Ġju icy
Ġprogram mes
Ġfear less
Ġcost ing
Ġdeep est
ĠGrand papa
Ġpublic ations
ĠAlex and
Ġdem ol
Ġsuper natural
Ġtrust ees
Ġ14 0
Ġfail s
isc oe
Ġaccount ed
Ġdev ote
Ġcompet itors
Ġgarden ing
Ġver ge
Ã³ w
Ġprin ces
Cl imate
ĠNe ville
De idre
ĠMon k
Ġaut o
Car thy
Bl ood
ĠBE FORE
Ġgrou ped
Ġble ed
Ġattract ions
ĠRoman ian
Ġhonor able
Ġbal anced
Ġcontact s
Ġant elope
Ġcampaign s
Ġfold er
Ġwhist les
Ġtour ists
Ġfurn ace
tw inkle
ĠHaw k
ĠSl inky
Ġfra il
ĠIr ving
Ġ190 7
Ġï¿½ï¿½ï¿½ï¿½ ï¿½ï¿½ï¿½
Ġwid th
wan o
Ġfal tered
ĠBet ter
dr inking
Ġhook s
Ġparticip ation
Ġparticip ating
Ġsmooth ly
ĠGar c
icop ter
ĠĠĠĠĠĠĠĠĠĠĠĠĠĠĠĠĠĠĠĠĠĠĠĠĠĠĠĠĠĠĠĠ Ġ
Ġconsequ ently
Ġunus ually
lyn n
Ġsuck ed
Ġdeser ts
Ġscratch y
Ġdecor ations
duck s
ĠBaby lon
Ġcock pit
bor ne
Ġspect acles
Ġ185 4
Ġpupp ets
Ġsuffer ings
alm at
Ġexplan ations
Ġrust y
Ġrust les
ĠHor ace
Ġuniform s
ĠLiber ty
jump ing
Sec ret
Ġsumm ary
ĠMerc ia
Ġmend ed
Ġchim ed
Ġinse ct
Ġpier ced
Ġsack ed
ĠAra os
Ġtum ult
ĠIce land
ĠCab inet
Ġcoo lly
Ġga ily
ĠPear son
ĠUr du
ĠIndones ian
Fe el
Ġsway ed
shop ping
CON TENTS
Ġspons ored
ĠFif th
ĠMacedon ian
quiet ly
Ġfoss ils
ĠIndepend ence
Ġric hest
Ġcongrat ulate
Ã¡t chi
ĠAud rey
GRUN TING
ĠOri ental
haus en
ATTER ING
Ġpeac ock
Slow ly
Ġlur king
Ġsyll ables
Ġorn ament
Ġrepubl ic
grap es
whim pering
SCREAM S
ĠMun ich
Ġmeek ly
ĠHop kins
Ġloll ipop
ĠChad wick
Ġintellect ual
Ġment ally
Ġlang ue
ĠDimit ra
Ġsib lings
ĠCrim ea
Ġlam bs
Ġenforce ment
Ġdang ling
ĠHunting ton
Ġimmort al
Ġexpend iture
Ġinsign ific
ĠAlz heimer
Ġsatur day
ĠBuddh ist
Ġteles cope
Ã¡nd ez
ĠWhitt aker
ĠShang hai
ĠAgr ic
Ġnie ces
Ġconspic uous
Ġsomers ault
Ġome lette
ĠCuth bert
' ."
6 00
: .
A way
B ay
C ad
D iv
D ream
F orm
G AN
I LA
I LY
J amie
K id
K ir
K nock
L im
L arry
M ir
M aking
M ars
N ear
N arr
N urse
P P
R on
R oll
S ort
T ha
T odd
T unde
V i
V ES
W ed
_ ."
b arrow
d led
e ach
f ing
f orth
g room
g uns
j uss
k an
k awa
l Ã©
n ard
o ink
p enc
p iring
p gd
w ark
x ual
z one
Ġ ouch
Ġt ink
Ġt ourn
Ġt ours
in qu
Ġw ot
Ġw oe
Ġw ides
Ġb red
Ġb ount
Ġc uc
Ġc ords
Ġm ah
Ġm ating
Ġf us
Ġf erry
Ġf uriously
Ġy oyo
or g
or ic
or ient
Ġp sh
Ġp its
Ġp iling
Ġl inger
om atic
Ġhe h
le ms
le ading
le iman
ve z
id an
Ġbe aver
oo by
ld a
al g
Ġe yed
im i
Ġre de
Ġre ared
Ġn an
Ġn at
ir ot
ĠT oul
st a
ĠS M
ĠS n
ĠS my
ĠS IR
ĠS oto
ĠS acramento
ĠM ul
ĠM ig
ĠM ate
ĠM orm
ĠM mm
ĠM AY
ĠM ADE
Ġme mo
ĠA viation
ome o
Ġgo sp
Ġli l
ĠC ou
ĠC ars
ĠC oke
ĠC amb
ĠC OUN
ĠB AR
ĠB ah
ĠB order
ĠH ollow
ĠH ARD
ĠH etty
ant ics
un ches
ra v
Ġj ets
ĠP ow
ĠP www
ĠP owers
ĠP hys
ĠP LA
ĠP once
ĠP UB
our ke
ĠD AD
ĠD amn
ĠD AYS
ab ix
Ġr ouse
ĠW AR
ĠW ENT
oh o
Ġde mer
ĠJ ak
ĠJ ournal
ĠF und
ĠG RO
ĠG oogle
ĠL ah
Ġor al
Ġor gans
Ġgot s
ak ut
ast as
Ġsp ur
ĠE D
ĠE L
ĠO st
Ġex port
Ġex cell
ag ua
Ġpro d
ear ing
au ce
Ġag in
Ġover ha
Ġcl ad
ure n
Ġpe er
ĠK il
ĠK ik
ĠK EEP
Ġbr at
ian g
do ctor
av is
ang an
ull en
ĠSt ay
Ġfl akes
Ġcar b
Ġpo king
ru z
Ġun b
Ġun seen
AN UARY
cc ane
cl othes
ob iles
Ġad orn
Ġad vers
Ġad rift
oc le
og ram
Ġunder water
Ġact ively
RO B
Ġper ched
ĠIn n
Ġch imes
Ġhome ward
Ġmay onnaise
Ġcr ate
Ġcr ude
Ġcr ushing
Ġbu gger
Ġsl ung
up ree
Ġres id
Ġres olute
Ġchan ced
land o
She riff
Ġche ated
und ered
li b
Ġseem ingly
ĠFr is
ĠFr an
Ġbus ily
Ġwalk ie
Ġwait s
me ga
to e
Ġter race
ĠNew ark
omb ies
ib ia
St one
form ula
app les
Ġph on
aut ical
Ġsk illed
ĠDe cl
ĠTh under
Ġdisc ont
aken ing
Ġsent ry
ĠChrist ina
Ġgra il
ipp ers
AS EL
Ġsweet ness
Ġmid fielder
Ġdef ences
Ġrece ives
AP RIL
Ġpar adise
An nie
Ġappro aches
Ah h
Ġlo ading
Ġve x
rat ors
ean ing
ÃŃ ta
Ġstat utory
Ġest ates
amb ig
Ġpract ised
Ġsight ed
Ġcal am
ron ic
Ġcost ly
ĠMy stery
See ing
Ġsuper market
Ġbes eech
ĠFrank en
Ġmatch ing
Ġdecl aring
igg ins
Ġrain fall
ĠSha ft
ĠSe attle
Ġfinger prints
Ġhoney moon
Gr ant
Ġgen et
Ġbrown ie
Ġgas oline
Will ie
ĠSu leiman
Ġport ions
ili ary
Ġsimilar ly
het t
het ically
rer as
ĠLet itia
ĠMon roe
Ġ23 7
Ġkey board
ĠChe ese
Ġdestroy er
raw l
ĠQu ick
ĠQu int
Pro fessor
Even ing
ĠGl ad
Ġfol iage
cast ing
Ġforth coming
Ġsuff ix
Ġpet rol
Ġ186 4
200 2
200 3
Ġtrick ed
Ġbother s
show er
Ġunc omm
Ġcart ridges
ĠCat aract
Ġfeat uring
Ġcelebr ity
Ed mund
Ġdere k
ĠDep uties
Ġappreci ation
ĠTy re
ĠWE E
Ġcred its
mom ma
ĠEvery one
Ġnovel ist
KN OCK
Ġdetect ives
ĠHaw ks
Ġfra gment
ĠMos lems
ĠDel aware
ĠĠĠĠĠĠĠĠĠĠĠĠĠĠĠĠĠĠĠĠĠĠĠĠ ĠĠĠĠĠĠ
inter rupt
ĠRes erve
ĠBet hany
Ġsees aw
ĠSun set
ĠBur ke
Ġterror ists
hun hunh
OH N
Te ch
Ġscratch ing
197 0
Ġtender ness
bor o
Ġspect acle
Ġimprove ments
Ġbast ards
Ġ189 6
ĠCOM ING
ĠAsh ton
Ġchew ed
ĠSure ly
Ġconcl usions
Ġrev ived
Ġtempt ing
wind ow
onom y
ĠCle ment
Int o
Eng land
XX X
Jul ien
kel odeon
Ġvirt ual
Ġobtain ing
Ġhom icide
Ġhom estead
ĠBrook s
Step hanie
ĠChap elle
Ġcryst als
ĠDown es
ĠJe ong
ĠAut umn
Ġfract ures
Alf ie
ĠDear ne
ĠMO ST
Chan ge
Ġuna ware
Ġnod ding
Ġconfirm ation
ĠSat an
Ġcann ons
Ġshrie k
Ġol ive
ÅĤ aw
Ġsoci eties
Ġscan ned
Fif teen
Ġpreced ing
Ġpip es
Ġconstitu ency
Jap an
ĠNort on
Ġnomine es
Ġreun ion
ĠSemin oles
Ġalumin um
Ġsculpt ure
Ġsynd rome
ĠGIRL S
ĠTHRO UGH
Ġvert ical
Ġconvent ional
Ġsincere ly
ĠChel sea
ÅĦ ski
Ġiod ide
Ġcass ette
Ġwholes ome
Ġscound rel
ĠTrip oli
Ġdisband ed
stro ke
Ġhorizont al
Ġauber ge
ontain e
ĠRifle man
Ġbarbe cue
Ġmischie vous
ĠGoth ic
Ġnort heastern
Ġnuis ance
ĠMumb ai
pgd p
' )
0 5
7 7
A E
A igoo
C ou
C ob
C RA
D olly
D isc
E Y
E nt
G one
H im
H uman
M ou
M ass
M iy
O GE
R a
R ain
T old
T oy
T ouch
W A
W ID
Y uki
Z Z
a ar
d ish
m art
m umbling
n ons
p ine
p read
r iment
s al
t ook
u ld
u ctions
w ine
y et
Ġt its
he avy
Ġa i
Ġa quarium
in ement
re pre
it ent
it Ã©
Ġb ounced
is ford
Ġm uck
Ġd azz
Ġd renched
Ġf ished
Ġf ading
Ġf idd
Ġf iddle
Ġp arrots
as in
as se
ĠI qbal
Ġh oops
Ġh ilar
le za
le ader
Ġha zard
ic eable
et abix
ut i
ut ing
Ġre versed
ot as
Ġn ipp
Ġn aming
am ination
Ġst er
Ġst ressed
Ġu gh
Ġu ric
ĠT we
ĠT ank
ĠT ales
ĠS ul
ĠS iss
ĠM ills
ea gan
ĠA ye
Ġli ly
ĠC our
ĠC ool
ĠC ultural
ĠB ord
ĠB less
ĠB achelor
ĠH az
ĠH ON
if ference
Ġthere by
Ġ" ",
op es
Ġso bs
ĠP A
ĠP ill
ĠP oy
ĠP erson
ĠP LEASE
ĠD I
ĠD iane
el o
ĠW u
ĠW elcome
Ġsa ves
ol ite
Ġab c
AT AL
ĠJ ae
ĠJ upiter
ĠF ace
ĠF actor
ĠF RON
ĠG AS
ĠG amma
han an
han ging
ĠL ac
ĠL AST
ĠL uther
ĠL upin
ĠL unga
em bourg
na w
Ġor chestra
ĠR ule
ind icating
os i
ĠN une
ak awa
ĠE qu
ĠE VER
ĠO z
ime h
od el
ag s
Ġdown s
Ġag gra
Ġcl enched
uh hum
AR LY
Ġqu iver
ĠK el
ĠK angle
ish na
Ġbl og
uck ily
Ġam pl
Ġco ord
ov o
har kov
ĠSt rat
Ġfl apping
Ġfl uttering
Ġpo ker
Ġpre ference
Ġsc enery
Ġdis ob
Ġdis ability
ĠV eg
ĠShe t
man ship
ĠY oon
ĠY emen
ĠIn st
ix t
Ġch ute
Ġcr us
let ed
Ġres isted
Ġcha ssis
Ġmin erals
In side
Ġche que
Ġcomm end
Ġcare lessly
Ġend orse
Ġtra its
Ġschool room
ĠBr itt
ĠBr iscoe
Ġcle ans
ug uh
me re
me at
who ever
Ġbed side
Ġreal izes
Ġnum er
ister s
Ġele venth
ger ton
Ġmil it
unt arily
St ick
Ġcons umer
Ġdec isive
ON ATH
Ġmus lin
Ġsk il
ĠEd ition
ern er
Ġinter im
Ġinter vention
ĠBe z
ĠBe leza
Ġste aming
Ġcra bs
Ġblue berry
ĠCar ly
Ġes pecial
Ġdeal ers
Ġmed ieval
Ġcold er
UN DER
bl ood
Ġpri ory
Ġhum id
Ġlisten ers
Ġopp onents
Ġtrans gender
Ġty re
ooh oo
Ġexam s
ĠAll ies
Ġsun rise
ĠTH ANK
ĠHer man
Ġpar an
Ġca f
ĠBrit ann
Ġbirthday s
ĠGeor ges
Ġvocal ist
Ġcho ices
ĠWar ri
Ġstar ved
Ġ16 20
ĠX V
Ġill usion
Ġpleas antly
tom atoes
Ġleg acy
ĠPl us
Ġvar iant
la very
Ġrecogn izing
Ġexcl amations
Ġboard ed
Ġboard ers
Ġtest ify
Ġfear fully
ĠTe h
ĠTe resa
Ġtem ples
Ġmount ing
Ġexcept ional
Ġdam ned
Ġval ued
Ġremark ably
off er
Ġut il
aff y
Ġexpress ing
Ġcompet ing
Gr anny
Ġgen ial
ĠWilliam son
Ġcollect or
Ġeduc ator
Ġhall oween
Ġsex ually
Ġmat ched
ĠMa ori
Ġcrow ds
Ġactiv ists
Ġhost ess
chan ged
Ġscar ing
ĠMark et
Ġpictures que
Ġobs erving
Sp ider
sn ake
ĠEll is
vey ard
Ġflat tered
ĠEm ir
Ġtrad itions
Ġur ging
Ġ186 7
Ġsusp ension
Ġphys i
sm ile
pro v
ĠJul ian
ĠGO VERN
ĠWH ICH
ĠMor occo
ĠHam pton
Ġ187 1
Ġ187 6
LES S
ĠReg iment
Ġinvestig ated
Ġinvestig ations
Le on
Ġprevent ing
ĠMY STER
ĠDav y
Dr ink
Ġsquee zing
ĠSl ovakia
Ġjigsaw s
ANT ING
CT OR
ros se
squ eaks
Ġparticip ants
agu ars
Ġtoss ing
Ġsem if
Ġregret s
Ġnic est
Ġbreast s
Care ful
Ġign oring
Ġmechan ic
ĠKen ya
Ġachieve ments
Ġconver ts
ĠHol mes
Ġchop ped
ĠPhilipp ine
Ġreward ed
MR S
ĠFle et
Ġassured ly
Ġven om
ĠDi ocese
Jul ie
ĠKas i
ĠSong s
CHAR LIE
Ġmaintain ing
ĠVer onica
jac ent
ĠTa ens
Ġsurre nd
Ġacquaint ances
beep beep
Ġparliament ary
Ġcollea gue
Ġcaterpill ars
Ġinterpret ed
ĠBav arian
Ġcreep y
ĠPier ce
Ġstor my
whe els
Ġrefuge es
ĠGro ve
Ġmuff ins
ĠFat imeh
Ġfug itives
ĠIng rid
Ġembr aced
Ġsacrific es
Ġcompass ion
cro codile
ĠTu val
Ġetern ity
ĠApal achi
dinosaur s
ĠSof ia
Ġmotherf ucking
Ġsor ce
Ġmourn ful
Ġobserv ations
Ġunsuccess fully
Ġabol ition
ĠUNDER STAND
ĠCroat ia
ĠREP OR
DAR ESBY
Ġther m
ĠMcK in
avor ite
ĠBOOK S
ĠRAD IO
Ġalle ged
Hea ven
Ġweas el
Ġcocon ut
Cla ire
ĠWarr inder
fol io
ĠPrest on
Ġdisli ked
Ġshipw reck
ĠBuen os
Ġcance led
Ġghast ly
Ġflan nel
Ġwides pread
repre ne
' ;
( #
; '
= "
A ri
A part
B ECAUSE
C ity
D U
D er
E arth
F enn
H undred
J erry
J ANUARY
K an
K arl
M ot
M ount
M OR
M Ã©
P T
R EN
T W
T aking
T ok
T uesday
W ord
Y ea
c ited
c onscious
c ricket
d ancing
e viÄĩ
g ull
h wa
i Ã³n
l ore
l ived
m ish
m ire
p ound
p aint
p hys
p anda
p ainting
t aker
u cted
w inning
z ig
in um
Ġs op
on so
it ably
Ġb raid
Ġc it
Ġm it
Ġm use
Ġm ounds
Ġm ashed
Ġo val
Ġd ine
Ġd add
Ġd ye
Ġf ian
Ġf ade
Ġf rying
Ġy el
Ġp m
Ġp ears
Ġg in
Ġl f
Ġl or
Ġl ain
Ġl itt
Ġl ament
at z
ĠI B
ĠI v
Ġh ump
ic ient
us p
Ġbe fallen
ri et
ri bly
Ġst if
Ġst ained
Ġu l
ĠT ER
ĠT omb
ĠT roy
ĠT ropical
ĠT URN
ĠS ic
ĠS ug
ĠS ale
ĠS atsuki
Ġk ay
ĠM ight
ĠM Ã©
ĠM itchell
all ied
Ġse iz
Ġse min
ĠC ost
ur ous
Ġnot ably
ill ion
ĠB od
ĠB ib
ĠB ald
ĠB AB
ĠH anna
ĠH ale
ĠH urry
ust ered
if ier
Ġne enaw
op al
ĠP ast
ĠP hoebe
ĠD ud
ĠD ES
ĠD iamond
Ġsh ipped
ĠW AN
ĠW ee
Ġout door
ul us
Ġab used
Ġde bris
AT A
ĠJ OHN
ĠF ac
ĠF un
ĠF ra
ĠF letcher
ĠG ha
ĠG ors
ĠG RA
ĠG IVE
ĠG utenberg
IN A
han tom
ĠL oyal
em er
Ġdid gerid
ĠR icky
ĠThe bes
ind ers
ĠN ova
ard ener
ak y
ast ard
ĠE ss
Ġcon ject
Ġv ines
ick i
ĠO bs
ag an
ag her
ag han
Ġright eous
Ġcl utched
He h
âĢĿ --
Ġro bbing
Ġpe ppers
ĠK n
ĠK Åį
Ġaf ar
add le
pe ck
Ġgr unted
ho f
ire ns
per ors
Ġhand les
av i
ah u
Ġfl ashes
Ġun intelligible
cl apping
ĠV ance
Ġad jo
Ġad jacent
oc he
Ġunder cover
Ġunder graduate
Ġcomp onents
RO OGE
Ġper ish
Ġapp lying
Ġres ume
Ġname ly
Ġra ging
Ġser pent
ĠUn ic
Ġdif fers
Ġmom ma
inn amon
Ġstr ay
ph ic
ds h
ĠBr ick
Ġdist ances
Ġdiffe red
ĠMar x
ĠMar ian
Ġacc l
---- âĢĿ
Ġac ro
gr in
gr ass
Ġreg ime
vent ure
Ġele ctoral
rew s
Ġsecond ly
Ġlist ener
Ġrest lessly
Ġri gged
ĠNew found
Ġmil itia
Ġcap ac
app arently
Ġpop ulous
Ġmiss ions
ĠGr ady
ern ation
Ġass ign
Ġbreak down
Ġinv ari
Ġdar n
vern ment
Ġref uses
Ġhair dress
ĠCha se
Ġpay ments
ĠChrist church
ĠZ ero
ĠFl ores
Ġcur rency
Ġshort est
ĠCar ney
ĠCar michael
Ġgra veyard
ipp in
ĠHar low
ert oy
ĠĠĠĠĠĠĠĠĠĠĠĠĠĠĠĠ ĠĠĠĠĠĠĠ
Ã¡ ti
Ġbar red
Ġhum our
Ġreason ing
ĠTO LD
Ġtrans actions
ĠPr ay
Ġblock ade
ĠBl oom
Ġfish y
Ġclass ification
Ġpar as
Ġpat ted
Ġarm or
Ġquiet er
Ġdress er
Ġstar ve
Fr anc
Ġfil mm
lo ads
Ġleg itimate
ĠPl ains
Ġsal am
Ġann ually
Ġpig gies
Ġcow boys
Ġbur p
Ġpen rod
ott ie
Ġdoubt fully
Ġtreat s
Ġsuper st
ĠGood bye
Ġcomfort s
Ġ13 4
ĠSe lden
ĠDr ama
Gr an
Ġkn uckles
Ġgen res
Ġgas ping
Ġsmell ed
haha ha
ĠRiver side
Ġrid den
Ġactiv ism
Ġpal ms
.âĢĻ âĢĿ
Ġcard iac
Re lease
Ġinterrupt ing
Ġris ky
ĠCo al
tr ue
olf ini
str id
ĠST ILL
ett ico
ĠRob bin
Ġapart ments
199 1
199 2
Ġoccur ring
Ġreact s
Ġreact ions
Ġroof s
bell s
Br id
dis ambig
ĠEn ough
Ġtext ile
ĠPlay ers
Ġreck oned
Jack y
Ġstro ked
Le od
ĠSing leton
Ġsucceed ing
Ġsuspect s
Ġboss es
Ġfold ing
Ġpred ator
Ġgang s
ESS IE
ĠVictor ian
IV ING
Ġbat tered
ĠĠĠĠĠĠĠĠĠĠĠĠĠĠĠĠĠĠĠĠĠĠĠĠ Ġ
ĠCom pton
Ġfal con
draw s
Ġtradition ally
Ġtur ret
ĠJud a
sque aling
Ġinvent ions
Ġsem ic
Ġcommer cials
ĠĠĠĠĠĠĠĠĠĠĠĠĠĠĠĠĠĠĠĠĠĠĠĠĠĠĠĠĠĠĠĠ ĠĠĠĠ
ĠBon nie
Ġaston ishing
Ġdish on
ĠCy prus
Ġcontroll er
ĠStud ents
Ġprec inct
ĠSil ence
Ser geant
Ġphr ases
Ġdisappear ing
Ġframe work
ĠIrish man
ĠNic kelodeon
MAR CH
Ġbul b
Ġconvin cing
ĠDev il
Ġcord ially
ĠRich ie
ĠCarr isford
ĠLar ita
Ġprovin cial
Co ffee
Ġobst acle
Ġsumm ers
Ġod or
Ġvari ables
Ġrend ezvous
ĠAss istant
Ġtu ber
Ġtires ome
Ġsou ven
Bern stein
Ġprofit able
ĠMaced onia
Ġbru ises
pass ed
ĠCorn ell
elf th
aza ar
ĠLim ited
pow ered
pie ces
Ġcorpor al
Ġindul ge
ĠLam mie
ĠEthe ling
Fred dy
Hard ly
Lou ise
ĠVen ice
Ġrestra ining
Pop ulation
ĠWin ston
Ġshrie ked
Ġcong regation
cont rol
ĠRail way
Ġpenet rated
Ġmisunder standing
ĠRoc he
Ġsoph isticated
Ġles bian
ĠOP EN
Ġfrag ile
Us ually
Ġec st
Ġlent ils
Ġresear chers
Ġsubsequ ent
nold s
happ en
Ġsund own
Ġvir us
ĠGri gson
Wonder ful
ĠFinn ish
BAR A
ĠOil ers
Ġcoc aine
lad imir
ĠKell ogg
Ġrefres hing
ĠCrus oe
ĠMoz art
CHE ERING
ĠCOUR SE
Ġovert aken
ĠChand ler
fuss ing
ĠSIGHT INGS
Ġcrick eter
Ġreinforce ments
Ġdisput ed
Ġkar ate
ĠBenn ett
Ġdanc ers
ĠBucking ham
Ġbulldo zer
ĠGosp el
ĠLer oy
Ġmoust ache
ĠChev ro
ĠBened ict
Ġnostri ls
nons peech
ĠPoy nings
ONATH AN
disambig uation
7 00
8 4
A ction
B L
C APP
C ameron
C Ã©sar
D est
D LE
F A
F antastic
J ay
K anga
L B
L ights
O ops
P ush
R ound
S ob
S ammy
U ES
U MB
W ish
W ashington
[ Â¶Â¶
b reed
e cho
f ill
g iv
j ig
l ake
m am
m ember
o ys
p olis
r ange
r ÃŃ
s ie
s oup
t uck
t te
t ray
u oka
w right
Ã ²
Ġt har
Ġa le
in se
ou fl
Ġw art
Ġw age
Ġs q
Ġs not
Ġs ash
er d
er ts
Ġb art
Ġb aff
Ġc urt
Ġm mm
Ġm orrow
Ġd ived
ing en
an mar
or rect
ed ee
en ary
en berg
Ġp ah
Ġp int
Ġg iggling
no hyla
at ism
Ġon going
Ġth inner
id ium
Ġbe eps
ow ards
ow ls
Ġe ve
Ġre cept
Ġn im
Ġn eared
se at
Ġst ap
Ġst itch
ĠT rent
st at
st uff
ĠS ign
ĠS aid
ĠS Ã£o
Ġk itties
ĠM ade
ĠM oll
ĠM oney
ĠM Ã¼
ĠM ovie
all a
and ers
Ġse g
Ġse ating
Ġli able
Ġli bert
âĢ ĭ
ĠC ord
ĠC elt
ĠC rit
ĠC ertainly
Ġwh ither
ĠB urn
ĠB ass
ĠB US
ĠH oo
ĠH ick
ĠH AR
ant ically
Ġj ing
th ia
ĠP oll
ĠP iet
ĠP RI
ge ons
rom pt
ĠD ol
ĠD rive
Ġr ushes
ĠW id
ĠW ea
ĠW ant
ĠW ord
ĠW HERE
Ġab ortion
Ġbut chers
Ġde lete
AT HER
ĠJ etty
ĠF o
ĠF lynn
ĠG ud
ation ally
ĠL ic
ĠL ET
na e
ĠR ooker
os o
ĠN oo
ĠN ile
ĠN yon
ĠN ippon
ak pa
Ġsp a
ĠE ye
ĠE ph
Ġcon form
Ġcon secut
ate ful
ĠO H
ĠO pp
ĠO mega
fe ed
ber ger
ine z
Ġtw itch
Ġ( _
Ġpro pri
Ġover looked
Ġover heard
Ġar ter
Ġar ist
Ġar tery
ace y
Ġmore over
Ġqu ivering
Ġpe bbles
ĠK iss
ĠK ah
iss ue
Ġgr it
Ġgr inning
Ġgr ampa
Ġgr asping
be h
ia z
Ġen er
pl ings
act ic
ater nity
ci o
ĠSt ore
ĠSt iles
Ġfl or
Ġfl atter
Ġfl utter
Ġcar riages
Ġun just
Ġpre fix
Ġpr udent
Ġdis rupt
Ġdis pers
get ic
ĠV ijay
og urt
RO SS
Ġper ils
ĠY o
MA S
MA X
ip ak
Ġch ubby
aw ar
Ġshow ers
Ġmin im
Ġrec urring
Ġdes olate
Ġfour teenth
Ġstr ang
Ġstr icken
Ġsupp orter
Ġrun ways
Ġdr ummer
me i
ane ous
Ġbox er
ces ter
Ġ18 40
ope z
sh oot
Ġent reprene
Ġrest rain
Ġsound ly
most ly
Is a
ĠAr ctic
St acy
ĠInd re
Ġcons ervation
ok u
Ġpop ulations
Ġdep ot
oe uv
ĠAn z
OR IES
Ġeight ies
enn el
Ġimp art
Ġimp ose
Ġref rain
Ġsqu at
Ġsqu ats
ĠChrist ie
ĠChrist ine
ĠIs le
UR Y
ĠFl orry
Ġpain ts
ik au
ĠAd air
ĠAd vis
fl oor
UN T
Ġbar ges
AS ES
Ġsweet corn
LE T
aim s
Ġpast oral
ĠBl air
Ġcheck er
Ġexpect s
ĠPro gress
ĠBar ack
que z
Ġresp ir
iter ally
Ġconst ernation
ĠGu itar
che ers
co ff
Ġda is
ĠDon key
Ġve ctor
Ġstar board
Ġspecial ized
Ġah hah
Ġsand y
ĠTr in
ÃŃ o
Ġhang s
Ġequ ipped
Ch inese
Some where
Ġdet ained
Ġhusband s
bur ps
igg a
ĠEl ms
ĠEl ton
Ġut ility
Ġaccept s
ĠSe rena
Ġlim p
Ġrub y
Ġcab ins
Ġbread th
Ġspir ited
Ġvict orious
Mar ia
Ġhall s
wood s
Ġ25 0
ĠHall elujah
Ġprin ter
Ġrid ers
Ġhost ing
ĠLet ter
Ġep id
Ġdiscuss es
tr ans
Ġsna ps
ĠChe ck
Ġconne cts
Ġfre aking
199 4
JO H
Ġund ers
ĠSch wart
Ġmer its
Ġpet ty
ĠBer g
ĠMat an
Ġthick ness
Ġunc ons
eg iate
Ġnap kins
Ġinf antry
Am azing
Ġ187 5
Ġscr ambling
Ġdistribut e
Ġcivil ians
Ġinvestig ating
ĠEr nest
Ġmult itude
Ġvac c
ĠCO L
Grand ad
Tw elve
Ġassoci ations
Ġnarrow ly
ĠDiv an
Ġjudge ment
Ġbat hed
ĠMur r
ĠCom puter
rig ins
Ġveget ation
Ind ian
Ind ividual
Â¶ ]
amin ated
UCK Y
Ġinstru cted
Ġcoal ition
rog ate
ĠPakistan i
mot or
Ġdrown s
Ġwra pping
198 0
Ġanti que
aunt ie
Ġphil anthrop
Ġrang ing
ĠSH OW
ĠCy cling
ĠAB S
ĠBre ak
Ġjournal ists
dri ve
Ġrac ism
Ġ185 7
Ġcaut ious
Ġaltern ate
ĠPo irot
mag ic
ĠYe ong
Ġexplos ives
ĠInter state
Pr ot
Ġconsist ently
Mark us
Ġhipp opotamus
bir thday
ĠSub way
ĠSC ROOGE
Ġje well
Ġteen age
Jul ia
Ġmal ign
Ġmal oca
Ġsneak ers
Ġdisturb ance
Ġswell ed
Ġgre asy
Ġpussy cat
Cor rect
Ġimper ial
LAUGH ING
Ġaccompany ing
Ġ179 1
Ġrestrict ed
Ġrestrict ions
Res earch
Ġevac uation
Ġindul ged
Ġga ol
Ġbrid le
tri angle
ĠANY THING
ĠSom ers
ĠHur ricane
ultane ous
Ġelim inate
Ġdod ged
Ġconvey ed
Ġslop py
Ġmant le
Ġsuburb an
lest on
Ġsmugg lers
Ġric her
Ġcontem pl
Jap anese
Ġexplo its
ĠDart moor
Ġtreacher ous
stad t
Ġchron ic
Je opardy
ĠWol fe
Ġsyll able
Light ning
Ġbol ted
ĠNAS A
Ġgymn asium
Den ver
Ġanalog y
Ġwal nut
Ġlingu istic
Ġpunct uation
Polit ical
Ġprejud ice
Ġinherit ance
ĠTasman ia
straw berry
ĠSend ai
Pra gue
Ġwreat h
Ġcourte ous
ĠBASE BALL
Ol ivia
Ġadequ ate
UPP LES
ĠFu ente
ĠRaf ael
Ġeste em
Ġmia ow
Ġbunn ies
Ġforci bly
ĠMacle od
ĠUSS R
Ġgosp el
CAPP IE
[Â¶Â¶ Â¶]
' --
8 5
A li
B EC
B oom
C at
D ance
D ark
E yes
F ood
F unny
F inal
F UL
G i
G rundy
H olly
I mm
L C
L IC
M ah
N et
N am
N FL
O fficer
O ppa
P rin
R T
R uth
S ports
T an
T we
T emper
U sed
W ent
W AYS
b ishop
c art
c overed
f us
[...]
